<unk>	0
<s>	0
</s>	0
▁n	-0
▁k	-1
▁t	-2
▁a	-3
an	-4
▁l	-5
▁m	-6
▁w	-7
▁i	-8
▁s	-9
▁b	-10
▁o	-11
in	-12
un	-13
gb	-14
ọn	-15
▁à	-16
▁y	-17
▁p	-18
▁ọ	-19
en	-20
▁f	-21
ti	-22
wọn	-23
▁ì	-24
la	-25
wa	-26
ba	-27
ku	-28
ra	-29
▁j	-30
le	-31
▁ní	-32
▁d	-33
▁e	-34
▁u	-35
▁ṣ	-36
▁r	-37
▁ni	-38
on	-39
ka	-40
ha	-41
is	-42
▁ti	-43
ga	-44
▁ẹ	-45
th	-46
ri	-47
▁ku	-48
ma	-49
▁àwọn	-50
zi	-51
▁gb	-52
▁wa	-53
▁tó	-54
we	-55
ye	-56
▁tí	-57
▁na	-58
ún	-59
lẹ	-60
li	-61
▁ń	-62
si	-63
àn	-64
▁ṣe	-65
lo	-66
da	-67
go	-68
ya	-69
ta	-70
▁ba	-71
▁pé	-72
mọ	-73
lu	-74
re	-75
rí	-76
▁lá	-77
ko	-78
kh	-79
za	-80
de	-81
▁ya	-82
ke	-83
▁sí	-84
di	-85
bi	-86
▁è	-87
▁wọ	-88
▁má	-89
pa	-90
▁la	-91
to	-92
▁wọn	-93
▁ó	-94
se	-95
mi	-96
hi	-97
▁lọ	-98
▁kan	-99
▁ò	-100
yo	-101
▁fi	-102
▁jẹ	-103
▁rẹ	-104
jọ	-105
▁ma	-106
▁awọn	-107
kan	-108
▁bá	-109
he	-110
▁máa	-111
kọ	-112
ge	-113
▁si	-114
ni	-115
va	-116
be	-117
bo	-118
▁sì	-119
thi	-120
ṣẹ	-121
▁g	-122
▁ka	-123
▁bí	-124
ro	-125
áà	-126
ho	-127
lọ	-128
wọ	-129
▁uku	-130
bu	-131
▁c	-132
yi	-133
▁kí	-134
hu	-135
ki	-136
▁ló	-137
▁ko	-138
wo	-139
▁sọ	-140
te	-141
ìn	-142
sa	-143
hun	-144
▁M	-145
▁lo	-146
nú	-147
ze	-148
ìí	-149
jú	-150
me	-151
ana	-152
▁fún	-153
gbà	-154
▁to	-155
ùn	-156
rọ	-157
▁pa	-158
▁náà	-159
tu	-160
▁A	-161
rin	-162
run	-163
▁ne	-164
ru	-165
▁mu	-166
▁mi	-167
▁-	-168
mu	-169
▁ohun	-170
▁láti	-171
▁1	-172
▁mọ	-173
▁àti	-174
▁in	-175
▁z	-176
▁lè	-177
rẹ	-178
▁N	-179
án	-180
eni	-181
▁wà	-182
▁ọlọ	-183
▁mo	-184
▁K	-185
gbo	-186
yàn	-187
▁le	-188
▁2	-189
ban	-190
do	-191
gu	-192
isa	-193
gi	-194
so	-195
lé	-196
▁kò	-197
▁kọ	-198
▁nínú	-199
▁ọmọ	-200
fà	-201
▁ìw	-202
tọ	-203
pọ	-204
▁wá	-205
ji	-206
▁U	-207
ini	-208
▁di	-209
▁pe	-210
ja	-211
▁bẹ	-212
po	-213
▁an	-214
▁yo	-215
▁no	-216
mba	-217
▁kwa	-218
▁ngo	-219
vi	-220
▁da	-221
▁S	-222
ona	-223
ve	-224
ani	-225
zo	-226
▁h	-227
kun	-228
yé	-229
pe	-230
▁ati	-231
zin	-232
mo	-233
kho	-234
▁gbo	-235
gba	-236
ts	-237
▁bi	-238
▁ki	-239
ise	-240
lú	-241
▁ta	-242
lì	-243
▁dá	-244
hó	-245
▁kó	-246
ẹn	-247
▁gbogbo	-248
èhó	-249
èhófà	-250
ṣe	-251
bí	-252
▁ye	-253
▁yi	-254
lá	-255
wu	-256
the	-257
▁ká	-258
▁ɖ	-259
▁wo	-260
▁jèhófà	-261
▁yìí	-262
rú	-263
▁va	-264
▁I	-265
isi	-266
▁B	-267
▁en	-268
èyàn	-269
▁tá	-270
▁rí	-271
▁sa	-272
ju	-273
▁pẹ	-274
fa	-275
▁nga	-276
wi	-277
▁se	-278
yan	-279
▁lẹ	-280
óò	-281
▁aba	-282
▁fun	-283
▁on	-284
▁naa	-285
fi	-286
tí	-287
ina	-288
ane	-289
yí	-290
▁lati	-291
▁ìwé	-292
bẹ	-293
sí	-294
fẹ	-295
▁í	-296
du	-297
▁ha	-298
▁we	-299
khu	-300
▁re	-301
▁nígbà	-302
rò	-303
▁iṣẹ	-304
▁um	-305
ran	-306
▁mú	-307
▁ara	-308
tha	-309
▁á	-310
su	-311
gbọ	-312
▁fẹ	-313
kwa	-314
lan	-315
khe	-316
▁tẹ	-317
yìn	-318
dọ	-319
▁be	-320
▁C	-321
▁un	-322
▁ke	-323
han	-324
▁fa	-325
▁èèyàn	-326
▁gba	-327
tẹ	-328
ce	-329
pha	-330
je	-331
gbẹ	-332
gun	-333
▁nípa	-334
ín	-335
▁ẹni	-336
▁bo	-337
àá	-338
sù	-339
sẹ	-340
fun	-341
▁mí	-342
yin	-343
ano	-344
fu	-345
hla	-346
bé	-347
▁kun	-348
jẹ	-349
tà	-350
▁ama	-351
▁za	-352
▁v	-353
rá	-354
mbi	-355
gen	-356
wen	-357
thu	-358
man	-359
ɔn	-360
chi	-361
gbe	-362
▁so	-363
▁20	-364
dè	-365
▁T	-366
ben	-367
▁yóò	-368
kàn	-369
▁ìd	-370
nà	-371
▁ọd	-372
lù	-373
phe	-374
nì	-375
yà	-376
ràn	-377
ris	-378
▁E	-379
▁li	-380
▁orí	-381
▁L	-382
dla	-383
wan	-384
or	-385
ca	-386
lwa	-387
▁go	-388
▁gbà	-389
ló	-390
▁Ma	-391
pin	-392
▁ayé	-393
▁gbé	-394
pẹ	-395
▁nge	-396
jì	-397
▁ɔ	-398
▁gbọ	-399
▁mẹ	-400
▁bu	-401
nu	-402
pi	-403
onke	-404
▁jé	-405
jọba	-406
▁lé	-407
▁kwe	-408
▁D	-409
bélì	-410
zu	-411
mí	-412
▁me	-413
▁ilẹ	-414
vu	-415
▁ukuba	-416
kuba	-417
▁bó	-418
lela	-419
▁ọjọ	-420
▁bíbélì	-421
▁P	-422
kò	-423
kha	-424
kẹ	-425
sha	-426
▁ile	-427
▁de	-428
▁W	-429
lun	-430
tho	-431
ǹkan	-432
▁tà	-433
hin	-434
▁lórí	-435
▁yẹ	-436
▁O	-437
▁nǹkan	-438
na	-439
▁jésù	-440
▁èyí	-441
▁pọ	-442
tan	-443
inu	-444
▁tún	-445
kó	-446
men	-447
ing	-448
▁ojú	-449
▁ilé	-450
dà	-451
▁zi	-452
kùn	-453
yẹn	-454
▁ga	-455
▁ìgbà	-456
▁kì	-457
khulu	-458
bá	-459
qa	-460
bọ	-461
fin	-462
san	-463
torí	-464
▁aban	-465
là	-466
wó	-467
▁V	-468
▁ndi	-469
▁3	-470
dwa	-471
wò	-472
▁ọdún	-473
ch	-474
▁é	-475
▁ezi	-476
gbé	-477
▁nítorí	-478
sin	-479
▁x	-480
▁ṣẹ	-481
▁ukuthi	-482
▁R	-483
▁tàbí	-484
▁àmọ	-485
▁wi	-486
▁òun	-487
rùn	-488
tun	-489
▁èdè	-490
om	-491
▁ju	-492
ní	-493
jo	-494
rè	-495
ria	-496
▁nì	-497
▁alá	-498
gẹ	-499
▁ibi	-500
weni	-501
▁tọ	-502
▁yii	-503
▁ará	-504
00	-505
kú	-506
dá	-507
▁G	-508
mb	-509
▁oku	-510
vo	-511
sì	-512
▁gan	-513
▁tun	-514
▁lára	-515
▁kris	-516
▁.	-517
fo	-518
▁kú	-519
▁kẹ	-520
▁kuti	-521
yọ	-522
qu	-523
▁gẹ	-524
ré	-525
▁lori	-526
seben	-527
kì	-528
mbe	-529
úr	-530
sh	-531
mbo	-532
▁já	-533
yu	-534
▁ẹgbẹ	-535
▁J	-536
pá	-537
iso	-538
▁ja	-539
▁ngoku	-540
dé	-541
▁H	-542
▁ala	-543
▁F	-544
▁ìṣ	-545
oni	-546
▁sá	-547
▁hu	-548
▁isi	-549
▁olu	-550
ar	-551
rán	-552
sìn	-553
▁yẹn	-554
▁em	-555
▁dé	-556
▁oní	-557
mwe	-558
▁ẹlẹ	-559
tì	-560
mù	-561
▁yoo	-562
▁pà	-563
▁ninu	-564
lò	-565
ci	-566
gbá	-567
▁201	-568
yẹ	-569
▁ri	-570
gan	-571
kùnrin	-572
yè	-573
dzi	-574
rù	-575
▁nd	-576
▁ra	-577
phu	-578
▁Y	-579
▁aa	-580
▁esi	-581
sọ	-582
wá	-583
▁inú	-584
▁mé	-585
es	-586
jen	-587
▁hàn	-588
.—	-589
cha	-590
hle	-591
▁pẹlu	-592
che	-593
ter	-594
xa	-595
▁ṣà	-596
▁ezin	-597
ena	-598
▁aṣ	-599
▁ìdí	-600
leyo	-601
ty	-602
▁bọ	-603
lin	-604
▁Mu	-605
▁Ka	-606
one	-607
▁jọ	-608
kà	-609
iṣẹ	-610
wé	-611
fe	-612
▁የ	-613
▁Va	-614
▁dà	-615
▁hi	-616
▁ké	-617
tò	-618
xo	-619
ene	-620
pho	-621
▁tú	-622
▁ɖo	-623
▁kwi	-624
st	-625
rìí	-626
▁ìjọba	-627
ɛn	-628
mbu	-629
▁irú	-630
▁19	-631
▁orílẹ	-632
▁oun	-633
anga	-634
pu	-635
▁su	-636
zwe	-637
ótọ	-638
▁zo	-639
▁ọkọ	-640
rwa	-641
yaka	-642
gc	-643
wana	-644
jí	-645
já	-646
ongo	-647
▁aka	-648
gwa	-649
dì	-650
▁4	-651
won	-652
dí	-653
▁ji	-654
▁ọba	-655
lwe	-656
▁gbe	-657
bìn	-658
▁ori	-659
▁izi	-660
▁oṣ	-661
▁gi	-662
tsi	-663
▁ah	-664
▁fo	-665
bìnrin	-666
▁5	-667
rs	-668
▁po	-669
▁nu	-670
▁Ku	-671
▁ṣè	-672
èrè	-673
▁dí	-674
inga	-675
▁jù	-676
▁lu	-677
▁sɛ	-678
▁nai	-679
tion	-680
▁maa	-681
tẹni	-682
ine	-683
▁rọ	-684
▁là	-685
▁yín	-686
eho	-687
ìmọ	-688
▁ìwọ	-689
jà	-690
dan	-691
pò	-692
ll	-693
▁kristẹni	-694
zwa	-695
▁ze	-696
▁izin	-697
▁ọrọ	-698
▁ngen	-699
▁im	-700
▁te	-701
▁wí	-702
▁ak	-703
dia	-704
▁ìyẹn	-705
co	-706
fí	-707
ino	-708
▁Z	-709
ehova	-710
nìyàn	-711
kè	-712
sho	-713
eng	-714
▁ọkàn	-715
▁Ba	-716
▁chi	-717
▁bà	-718
▁ènìyàn	-719
▁do	-720
▁táwọn	-721
▁of	-722
bù	-723
ede	-724
kulu	-725
kwe	-726
hlan	-727
▁Wa	-728
dlela	-729
▁gu	-730
dle	-731
▁sílẹ	-732
▁ìwà	-733
▁kuba	-734
▁agba	-735
▁am	-736
yá	-737
▁tu	-738
lí	-739
▁ee	-740
▁àwò	-741
gbè	-742
leni	-743
dun	-744
shi	-745
▁njen	-746
▁rere	-747
▁ìp	-748
than	-749
iswa	-750
▁ubu	-751
▁nipa	-752
kwen	-753
▁wò	-754
▁eli	-755
hlo	-756
▁fu	-757
▁‘	-758
▁oló	-759
▁vano	-760
▁ada	-761
▁ìgbé	-762
▁al	-763
▁mímọ	-764
phi	-765
▁yan	-766
ne	-767
hùn	-768
ẹrẹ	-769
▁ìlú	-770
yika	-771
-1	-772
rika	-773
mn	-774
bha	-775
▁,	-776
▁abantu	-777
am	-778
▁cha	-779
▁fọ	-780
▁jí	-781
ùgbọ	-782
rì	-783
▁imi	-784
jiria	-785
yìí	-786
▁olo	-787
▁iin	-788
▁àwòrán	-789
▁wɔ	-790
▁ìjọ	-791
gbọn	-792
▁ogun	-793
▁olú	-794
pẹẹrẹ	-795
▁ndị	-796
wà	-797
▁bụ	-798
▁eyi	-799
gọ	-800
pinlẹ	-801
kù	-802
▁kp	-803
▁torí	-804
ph	-805
gq	-806
▁báwo	-807
▁naijiria	-808
▁baba	-809
▁ṣùgbọ	-810
▁ro	-811
▁ṣẹlẹ	-812
▁yoku	-813
▁nɔ	-814
▁pha	-815
▁ìfẹ	-816
tàkì	-817
▁èmi	-818
▁du	-819
20	-820
bona	-821
▁nan	-822
▁àtà	-823
yɛ	-824
ró	-825
▁owo	-826
▁bíi	-827
▁yọ	-828
tsa	-829
▁pàtàkì	-830
▁በ	-831
▁ho	-832
mì	-833
▁ban	-834
▁olù	-835
sá	-836
ala	-837
▁mun	-838
cu	-839
▁—	-840
gbára	-841
hlu	-842
▁eku	-843
▁6	-844
▁ná	-845
ara	-846
sun	-847
▁kwen	-848
▁ngu	-849
▁noku	-850
▁አ	-851
▁lójú	-852
lisa	-853
▁ṣé	-854
kathi	-855
▁wɛ	-856
té	-857
kún	-858
▁àkó	-859
▁eto	-860
▁mɛ	-861
xe	-862
phan	-863
▁só	-864
sè	-865
rà	-866
ry	-867
kon	-868
ẽn	-869
tika	-870
ṣọ	-871
▁yí	-872
gh	-873
mp	-874
▁kodwa	-875
▁eeyan	-876
▁aye	-877
fọ	-878
min	-879
▁aku	-880
bà	-881
bun	-882
sen	-883
ck	-884
▁kunye	-885
dza	-886
son	-887
▁ahụ	-888
▁ìdá	-889
▁ipa	-890
▁ijọba	-891
rúkọ	-892
▁zvi	-893
▁ṣiṣẹ	-894
▁míì	-895
gún	-896
dún	-897
wájú	-898
ten	-899
rín	-900
▁7	-901
▁lò	-902
▁àpẹẹrẹ	-903
▁àtàwọn	-904
▁san	-905
jalo	-906
àní	-907
▁ali	-908
ong	-909
▁pi	-910
tsha	-911
ere	-912
bin	-913
▁omi	-914
▁min	-915
▁dó	-916
▁ìmọ	-917
▁méjì	-918
al	-919
kela	-920
▁ụ	-921
ánì	-922
el	-923
òro	-924
▁pè	-925
▁wiki	-926
▁oni	-927
mú	-928
dlu	-929
▁Na	-930
úró	-931
qala	-932
tàn	-933
lele	-934
▁idi	-935
tin	-936
▁sẹ	-937
▁In	-938
▁ọwọ	-939
▁ńlá	-940
▁ọdun	-941
zvi	-942
gama	-943
▁kúrò	-944
bhe	-945
▁yà	-946
▁awon	-947
bantu	-948
twa	-949
▁àì	-950
tse	-951
▁jáde	-952
▁àwa	-953
▁sin	-954
kí	-955
▁ọn	-956
qe	-957
pé	-958
▁rán	-959
▁vi	-960
bwe	-961
▁ɛ	-962
▁ukuze	-963
▁nigba	-964
shu	-965
Yehova	-966
yana	-967
▁igba	-968
tá	-969
▁fara	-970
ká	-971
▁co	-972
▁lɛ	-973
▁dáa	-974
ur	-975
ruba	-976
pedia	-977
er	-978
paa	-979
òótọ	-980
ṣà	-981
bò	-982
▁kà	-983
dawo	-984
▁asi	-985
▁olúwa	-986
▁ọkùnrin	-987
▁8	-988
▁ida	-989
bon	-990
▁báyìí	-991
▁wu	-992
din	-993
▁fí	-994
▁iya	-995
▁ṣọ	-996
▁wikipedia	-997
▁fá	-998
úrà	-999
▁kakhulu	-1000
tara	-1001
▁(	-1002
mun	-1003
▁ṣí	-1004
tori	-1005
kana	-1006
▁won	-1007
kuru	-1008
yàwó	-1009
rụ	-1010
kazi	-1011
▁àkókò	-1012
kile	-1013
▁láì	-1014
▁akọ	-1015
▁jo	-1016
ita	-1017
▁tabi	-1018
she	-1019
▁ilu	-1020
▁ipinlẹ	-1021
▁èrò	-1022
ent	-1023
▁vaka	-1024
▁ǹ	-1025
imba	-1026
rìn	-1027
daba	-1028
▁ru	-1029
funa	-1030
▁làwọn	-1031
▁sun	-1032
▁ab	-1033
fààní	-1034
lw	-1035
▁ṣeé	-1036
▁waye	-1037
▁aya	-1038
tɔ	-1039
yen	-1040
▁owó	-1041
ǹfààní	-1042
▁títí	-1043
▁zva	-1044
▁uM	-1045
tsh	-1046
kanye	-1047
▁Mo	-1048
▁je	-1049
isha	-1050
▁wàá	-1051
▁ran	-1052
áá	-1053
▁ili	-1054
▁for	-1055
hixo	-1056
gùn	-1057
ṣi	-1058
zisa	-1059
▁እ	-1060
▁baa	-1061
▁futhi	-1062
▁ṣa	-1063
tó	-1064
▁10	-1065
ish	-1066
▁ad	-1067
▁padà	-1068
mali	-1069
▁tɔn	-1070
▁tuntun	-1071
len	-1072
▁ǹjẹ	-1073
▁ísí	-1074
ham	-1075
▁nke	-1076
▁tiẹ	-1077
▁dara	-1078
ìíràn	-1079
▁yin	-1080
zan	-1081
cho	-1082
▁ísírẹ	-1083
qo	-1084
onú	-1085
dala	-1086
jò	-1087
▁mìíràn	-1088
dúrà	-1089
mina	-1090
000	-1091
▁pá	-1092
▁che	-1093
▁ako	-1094
▁wen	-1095
▁orúkọ	-1096
▁ìdílé	-1097
▁obìnrin	-1098
▁kristi	-1099
làyé	-1100
▁iye	-1101
ver	-1102
▁iri	-1103
Thixo	-1104
▁dị	-1105
Si	-1106
▁ẹnì	-1107
▁ame	-1108
anhu	-1109
gwe	-1110
lana	-1111
▁àkọ	-1112
▁and	-1113
▁okun	-1114
kwazi	-1115
rún	-1116
▁loku	-1117
▁yoruba	-1118
▁ètò	-1119
▁síbẹ	-1120
hari	-1121
kin	-1122
▁àà	-1123
▁irin	-1124
▁njengo	-1125
▁kàn	-1126
▁iwa	-1127
▁ńṣe	-1128
kani	-1129
▁katika	-1130
▁Le	-1131
mende	-1132
▁ìṣòro	-1133
▁ronú	-1134
má	-1135
lelo	-1136
ké	-1137
▁ii	-1138
▁iba	-1139
kp	-1140
▁gbá	-1141
▁ap	-1142
▁bɛ	-1143
▁Af	-1144
▁dùn	-1145
ṣì	-1146
ríà	-1147
sebenzi	-1148
bú	-1149
▁àní	-1150
▁zoku	-1151
ono	-1152
rt	-1153
▁oju	-1154
▁15	-1155
▁kún	-1156
▁9	-1157
▁kw	-1158
▁ṣu	-1159
▁ge	-1160
▁nitori	-1161
▁abe	-1162
▁òfin	-1163
▁kum	-1164
▁ade	-1165
▁bayi	-1166
wanda	-1167
ol	-1168
▁láàá	-1169
▁yakho	-1170
▁ɖò	-1171
mana	-1172
▁fe	-1173
lɔ	-1174
ama	-1175
▁àjọ	-1176
▁ẹrọ	-1177
▁dúró	-1178
▁aman	-1179
▁man	-1180
il	-1181
gano	-1182
▁sẽn	-1183
nyí	-1184
zulu	-1185
▁àgbà	-1186
▁òbí	-1187
▁agbe	-1188
▁eko	-1189
dó	-1190
▁lọwọ	-1191
rɛ	-1192
▁ọpọ	-1193
▁ben	-1194
▁mwa	-1195
tù	-1196
▁ngi	-1197
sàn	-1198
▁jó	-1199
▁yakhe	-1200
▁zv	-1201
▁níbẹ	-1202
ss	-1203
▁ari	-1204
▁àá	-1205
ondo	-1206
▁uya	-1207
rica	-1208
èdè	-1209
▁gomina	-1210
▁igbe	-1211
▁̀	-1212
miri	-1213
doda	-1214
▁vanoti	-1215
▁iwe	-1216
royin	-1217
▁ve	-1218
▁tilẹ	-1219
ròyìn	-1220
▁ai	-1221
▁ìpín	-1222
▁oko	-1223
▁Un	-1224
khan	-1225
▁nen	-1226
▁kuma	-1227
hona	-1228
khi	-1229
▁ca	-1230
rị	-1231
▁dára	-1232
▁ìgbàgbọ	-1233
shan	-1234
▁tì	-1235
bula	-1236
▁túbọ	-1237
▁uma	-1238
imbabwe	-1239
▁díẹ	-1240
▁laa	-1241
▁kwaye	-1242
onga	-1243
▁Ngo	-1244
▁ch	-1245
▁fà	-1246
áájú	-1247
▁ise	-1248
▁bé	-1249
▁Ama	-1250
▁láàárín	-1251
▁ṣi	-1252
▁kanye	-1253
fan	-1254
uni	-1255
▁okanye	-1256
dùn	-1257
▁Si	-1258
▁wakhe	-1259
fane	-1260
▁bẹẹ	-1261
▁rá	-1262
▁ún	-1263
▁káwọn	-1264
▁hiyo	-1265
▁nìyẹn	-1266
ou	-1267
Ma	-1268
ṣo	-1269
▁ṣì	-1270
▁nífẹ	-1271
▁the	-1272
▁oo	-1273
ná	-1274
▁fáwọn	-1275
dde	-1276
▁emi	-1277
▁"	-1278
▁eni	-1279
yeli	-1280
pàá	-1281
hlaba	-1282
títọ	-1283
▁pin	-1284
▁ana	-1285
bani	-1286
beni	-1287
▁ɖɔ	-1288
▁Ko	-1289
▁ci	-1290
▁ce	-1291
kosi	-1292
kw	-1293
kulun	-1294
ẹnu	-1295
▁ib	-1296
▁nìkan	-1297
▁Bu	-1298
▁12	-1299
▁dájú	-1300
▁vari	-1301
▁rò	-1302
phela	-1303
▁Ha	-1304
▁ilee	-1305
▁ipò	-1306
tee	-1307
▁zonke	-1308
▁ìgbésí	-1309
▁́	-1310
▁ol	-1311
kati	-1312
▁gbẹ	-1313
mela	-1314
mele	-1315
▁ràn	-1316
▁as	-1317
▁apa	-1318
kwenza	-1319
▁yá	-1320
ng	-1321
▁oṣù	-1322
▁ṣugbọn	-1323
▁wan	-1324
▁200	-1325
▁maka	-1326
khathi	-1327
pan	-1328
▁ng	-1329
▁kuwa	-1330
kala	-1331
▁መ	-1332
▁nje	-1333
▁ọlọpaa	-1334
qhu	-1335
▁mpe	-1336
▁yonke	-1337
den	-1338
waju	-1339
bhi	-1340
▁ina	-1341
▁arákùnrin	-1342
▁amba	-1343
no	-1344
ly	-1345
▁tán	-1346
▁11	-1347
kiri	-1348
▁’	-1349
minyaka	-1350
▁ìsìn	-1351
▁ẹsẹ	-1352
▁awa	-1353
ok	-1354
ren	-1355
ànà	-1356
▁uthe	-1357
▁ngokuba	-1358
lise	-1359
▁ngoba	-1360
▁gí	-1361
gbò	-1362
▁ɖe	-1363
▁af	-1364
▁ibe	-1365
▁sínú	-1366
▁abo	-1367
ron	-1368
úù	-1369
kele	-1370
▁ìrán	-1371
▁khona	-1372
▁níbi	-1373
dlalo	-1374
langa	-1375
▁lwa	-1376
▁nto	-1377
▁ele	-1378
▁pu	-1379
▁igb	-1380
▁elo	-1381
▁nìdí	-1382
ingi	-1383
▁yen	-1384
▁mà	-1385
bili	-1386
were	-1387
únjẹ	-1388
▁mma	-1389
▁ṣo	-1390
há	-1391
▁into	-1392
dìí	-1393
thanda	-1394
▁Pa	-1395
▁ngenxa	-1396
kòó	-1397
ad	-1398
bwa	-1399
▁koku	-1400
lànà	-1401
▁ìṣẹ	-1402
kileyo	-1403
▁az	-1404
▁mɔ	-1405
qin	-1406
béèrè	-1407
▁sɔ	-1408
tshe	-1409
pilẹ	-1410
-2	-1411
▁agbára	-1412
tún	-1413
khona	-1414
pó	-1415
dò	-1416
▁Ọ	-1417
▁kede	-1418
ṣù	-1419
▁dì	-1420
dáa	-1421
zvo	-1422
▁àmì	-1423
▁iyi	-1424
▁'	-1425
▁ẹjọ	-1426
zela	-1427
▁nn	-1428
mɛ	-1429
hìn	-1430
xi	-1431
fana	-1432
▁phambi	-1433
zeka	-1434
▁túmọ	-1435
▁òtítọ	-1436
zini	-1437
▁Se	-1438
yisa	-1439
▁Sa	-1440
▁ìbéèrè	-1441
▁nema	-1442
▁nti	-1443
▁ikú	-1444
dio	-1445
bele	-1446
▁ìlànà	-1447
yama	-1448
▁Ki	-1449
siko	-1450
▁han	-1451
▁pú	-1452
lweni	-1453
▁vachi	-1454
▁ìròyìn	-1455
lọpọ	-1456
▁nú	-1457
dín	-1458
▁igi	-1459
▁oúnjẹ	-1460
thetho	-1461
▁nama	-1462
ṣin	-1463
▁meji	-1464
ld	-1465
land	-1466
▁uye	-1467
▁kankan	-1468
ungu	-1469
▁mó	-1470
onu	-1471
aka	-1472
zwi	-1473
▁yàtọ	-1474
rd	-1475
▁orilẹ	-1476
dele	-1477
▁aarẹ	-1478
▁dáadáa	-1479
dela	-1480
hen	-1481
▁oṣu	-1482
wù	-1483
▁Uku	-1484
▁tan	-1485
yɔ	-1486
yise	-1487
▁abu	-1488
▁dan	-1489
rumende	-1490
dodo	-1491
hamba	-1492
▁jà	-1493
tsho	-1494
▁wɔn	-1495
ree	-1496
▁dze	-1497
▁tɔ	-1498
▁ọhun	-1499
▁Ya	-1500
shin	-1501
▁burú	-1502
inzi	-1503
▁kule	-1504
▁es	-1505
tter	-1506
▁ngayo	-1507
▁he	-1508
▁bonke	-1509
kulunkulu	-1510
▁buhari	-1511
▁ọgbọ	-1512
▁sún	-1513
ánù	-1514
▁ibo	-1515
▁À	-1516
▁onye	-1517
▁uN	-1518
▁bàbá	-1519
gqi	-1520
▁ata	-1521
cin	-1522
kolo	-1523
▁yɛ	-1524
▁ọgọ	-1525
bini	-1526
kunrin	-1527
zali	-1528
fani	-1529
ment	-1530
▁pí	-1531
bala	-1532
ton	-1533
▁orin	-1534
hlala	-1535
▁neku	-1536
lis	-1537
▁lwe	-1538
▁kejì	-1539
▁18	-1540
▁ọna	-1541
▁phakathi	-1542
▁ema	-1543
wele	-1544
▁is	-1545
▁wú	-1546
▁lí	-1547
àdé	-1548
▁uthi	-1549
ted	-1550
▁bɔ	-1551
▁izinto	-1552
▁ìbá	-1553
phakathi	-1554
kisa	-1555
▁abẹ	-1556
oo	-1557
▁ipo	-1558
▁wathi	-1559
▁kù	-1560
binrin	-1561
▁kusho	-1562
▁phe	-1563
sebenza	-1564
▁àṣẹ	-1565
▁kɛ	-1566
aba	-1567
thola	-1568
▁ime	-1569
▁kuye	-1570
▁iroyin	-1571
disa	-1572
twana	-1573
▁ìtàn	-1574
▁gidi	-1575
um	-1576
▁fì	-1577
cto	-1578
▁bú	-1579
gena	-1580
▁14	-1581
van	-1582
▁umn	-1583
▁lẹyin	-1584
àásù	-1585
▁ase	-1586
leka	-1587
▁engu	-1588
▁awo	-1589
rayeli	-1590
▁Ni	-1591
▁xa	-1592
▁pada	-1593
▁Mi	-1594
▁ez	-1595
▁Chi	-1596
▁13	-1597
▁ayi	-1598
chị	-1599
▁gbi	-1600
▁dẹ	-1601
▁kube	-1602
▁bii	-1603
fídì	-1604
▁dáfídì	-1605
▁ayọ	-1606
▁ihe	-1607
▁ajọ	-1608
▁oò	-1609
risi	-1610
suku	-1611
.’	-1612
tal	-1613
wɛ	-1614
▁láwọn	-1615
síté	-1616
▁ẹran	-1617
▁Lo	-1618
▁ani	-1619
▁nà	-1620
▁ano	-1621
bhu	-1622
phambi	-1623
gá	-1624
▁gẹgẹ	-1625
▁béèrè	-1626
▁hù	-1627
tl	-1628
gbègbè	-1629
▁ebe	-1630
▁naba	-1631
▁àpọ	-1632
▁nibi	-1633
dù	-1634
fanele	-1635
mise	-1636
tanga	-1637
ram	-1638
▁–	-1639
▁ìpínlẹ	-1640
dụ	-1641
▁kaa	-1642
▁orile	-1643
▁Ta	-1644
kuwa	-1645
▁La	-1646
▁2019	-1647
▁yena	-1648
yì	-1649
▁aṣọ	-1650
▁ìṣe	-1651
zana	-1652
▁lesi	-1653
▁aláì	-1654
▁mpo	-1655
▁rárá	-1656
▁kuto	-1657
uru	-1658
0.	-1659
gbó	-1660
tụ	-1661
▁sen	-1662
▁?	-1663
ako	-1664
ṣun	-1665
fundi	-1666
▁lara	-1667
▁om	-1668
▁kulo	-1669
▁òkè	-1670
ríkà	-1671
▁zve	-1672
▁tòótọ	-1673
sebenzisa	-1674
day	-1675
▁apá	-1676
lòmí	-1677
sítélì	-1678
▁16	-1679
▁tsa	-1680
▁vanhu	-1681
chu	-1682
▁bayii	-1683
▁nù	-1684
jíríà	-1685
▁wàásù	-1686
gaba	-1687
▁ino	-1688
▁mì	-1689
hún	-1690
▁afi	-1691
rus	-1692
▁gbó	-1693
zve	-1694
tánì	-1695
us	-1696
les	-1697
▁Jo	-1698
▁uYehova	-1699
jè	-1700
phandle	-1701
▁ita	-1702
DC	-1703
witter	-1704
▁eniyan	-1705
▁sáà	-1706
kwi	-1707
▁kọjá	-1708
▁pan	-1709
tiona	-1710
kere	-1711
▁kéèyàn	-1712
▁ẹnu	-1713
▁ṣàlàyé	-1714
dẹ	-1715
▁Um	-1716
▁silẹ	-1717
▁ngesi	-1718
▁ẹlòmí	-1719
▁jò	-1720
▁àǹfààní	-1721
▁eré	-1722
▁iko	-1723
▁yorù	-1724
gane	-1725
tya	-1726
▁An	-1727
▁kódà	-1728
▁té	-1729
tinú	-1730
gela	-1731
▁Kwa	-1732
jara	-1733
▁ifi	-1734
▁kɔ	-1735
▁isa	-1736
▁ngama	-1737
▁yorùbá	-1738
ond	-1739
▁lawọn	-1740
zane	-1741
rukọ	-1742
▁ibẹ	-1743
esu	-1744
▁bẹrẹ	-1745
rɔ	-1746
▁ese	-1747
▁ìbí	-1748
▁akẹ	-1749
▁lai	-1750
▁rìn	-1751
▁ìránṣẹ	-1752
▁ìkẹ	-1753
lung	-1754
▁laarin	-1755
-19	-1756
▁àpilẹ	-1757
wẹ	-1758
▁ከ	-1759
sà	-1760
▁jade	-1761
geria	-1762
lla	-1763
▁wáyé	-1764
▁kana	-1765
▁Aba	-1766
kɔ	-1767
▁pinnu	-1768
▁lasiko	-1769
mkani	-1770
▁wakho	-1771
▁aki	-1772
ura	-1773
▁igbi	-1774
▁bakhe	-1775
as	-1776
lujara	-1777
▁amẹ	-1778
kwu	-1779
▁apo	-1780
▁ikọ	-1781
,000	-1782
▁láà	-1783
yə	-1784
oku	-1785
cwa	-1786
▁indlela	-1787
▁ayelujara	-1788
▁ofin	-1789
▁aso	-1790
ɖe	-1791
▁É	-1792
▁Li	-1793
yaya	-1794
pinnu	-1795
dze	-1796
taki	-1797
▁idibo	-1798
fara	-1799
tumi	-1800
▁17	-1801
▁àrùn	-1802
com	-1803
ling	-1804
▁enga	-1805
thwa	-1806
enge	-1807
▁àsọ	-1808
▁pàá	-1809
dleni	-1810
▁ede	-1811
▁wù	-1812
▁Bo	-1813
▁ìtọ	-1814
▁wali	-1815
▁tò	-1816
▁noma	-1817
▁nom	-1818
▁nílò	-1819
anu	-1820
jini	-1821
201	-1822
▁Ndi	-1823
▁rántí	-1824
▁àṣà	-1825
▁nda	-1826
▁ìyá	-1827
ang	-1828
▁nọ	-1829
vid	-1830
ishi	-1831
pụ	-1832
▁ọkan	-1833
kwan	-1834
lli	-1835
sema	-1836
bɛ	-1837
dlali	-1838
orona	-1839
can	-1840
▁dzi	-1841
▁ọja	-1842
wɔ	-1843
ṣè	-1844
▁ìtẹ	-1845
▁pàápàá	-1846
foɔ	-1847
beka	-1848
▁olóò	-1849
phaka	-1850
▁ukun	-1851
fune	-1852
zima	-1853
ṣí	-1854
▁mar	-1855
▁tè	-1856
▁saa	-1857
▁pro	-1858
ìní	-1859
▁yaka	-1860
dana	-1861
▁dán	-1862
▁woku	-1863
thathu	-1864
▁diẹ	-1865
▁nt	-1866
▁púpọ	-1867
Bha	-1868
fún	-1869
▁gbàdúrà	-1870
wesi	-1871
▁alà	-1872
▁wam	-1873
hlobo	-1874
yar	-1875
nìí	-1876
cala	-1877
▁ayẹ	-1878
▁lórílẹ	-1879
xesha	-1880
fíà	-1881
▁ለ	-1882
wun	-1883
làá	-1884
phen	-1885
▁òní	-1886
lle	-1887
▁2018	-1888
gele	-1889
tɔn	-1890
▁aṣo	-1891
tra	-1892
▁uThixo	-1893
tunga	-1894
▁vati	-1895
kóso	-1896
▁sátánì	-1897
mm	-1898
▁fọwọ	-1899
yànjú	-1900
▁ተ	-1901
▁ነ	-1902
lérí	-1903
▁ẹnikẹ	-1904
Zimbabwe	-1905
▁Ke	-1906
mini	-1907
▁kuka	-1908
▁agbara	-1909
▁nde	-1910
zani	-1911
▁muri	-1912
lon	-1913
▁láyé	-1914
wn	-1915
▁ìyàwó	-1916
liso	-1917
▁agbegbe	-1918
▁iru	-1919
▁naye	-1920
▁kubo	-1921
▁dey	-1922
▁kuthi	-1923
bó	-1924
▁tíì	-1925
▁ìhìn	-1926
ziwa	-1927
mẹ	-1928
▁baka	-1929
khon	-1930
mpa	-1931
▁sàn	-1932
▁ị	-1933
▁24	-1934
▁eza	-1935
▁mari	-1936
lungu	-1937
ọna	-1938
gara	-1939
riki	-1940
▁እን	-1941
mó	-1942
▁anga	-1943
▁bóyá	-1944
▁umu	-1945
▁wana	-1946
▁owa	-1947
▁asa	-1948
sɛ	-1949
▁kìí	-1950
▁ileeṣẹ	-1951
▁fúnra	-1952
▁imọ	-1953
olu	-1954
kuti	-1955
rati	-1956
wụ	-1957
wule	-1958
sílẹ	-1959
▁Nga	-1960
▁nezin	-1961
▁wakati	-1962
▁látinú	-1963
▁zin	-1964
AN	-1965
▁unga	-1966
▁sọrọ	-1967
▁iki	-1968
▁omo	-1969
tè	-1970
mánì	-1971
jáde	-1972
lunga	-1973
qinise	-1974
▁òkú	-1975
▁àdúrà	-1976
▁jòh	-1977
▁nílé	-1978
▁yàn	-1979
lula	-1980
▁otu	-1981
▁ìpàdé	-1982
▁iṣ	-1983
sangano	-1984
der	-1985
isan	-1986
gani	-1987
▁Co	-1988
zen	-1989
▁nə	-1990
▁obu	-1991
ed	-1992
gira	-1993
yela	-1994
▁lágbára	-1995
teeti	-1996
▁gore	-1997
láà	-1998
▁uni	-1999
id	-2000
▁Ẹ	-2001
▁ìyà	-2002
mpi	-2003
lera	-2004
▁ichi	-2005
sùn	-2006
lule	-2007
▁kwu	-2008
▁sìn	-2009
▁ngom	-2010
▁au	-2011
tional	-2012
sta	-2013
yere	-2014
▁pari	-2015
▁eya	-2016
▁mme	-2017
lani	-2018
virus	-2019
ct	-2020
▁nipasẹ	-2021
rira	-2022
▁ìwàásù	-2023
rwere	-2024
▁kwakhe	-2025
pè	-2026
kuu	-2027
mene	-2028
esi	-2029
▁nilu	-2030
▁téèyàn	-2031
▁omu	-2032
▁25	-2033
tshi	-2034
mandla	-2035
et	-2036
▁Da	-2037
▁oke	-2038
▁lónìí	-2039
bho	-2040
▁wé	-2041
sáyà	-2042
▁zvaka	-2043
▁mba	-2044
▁waba	-2045
iseben	-2046
khala	-2047
▁Uni	-2048
bone	-2049
dara	-2050
▁lakhe	-2051
▁kuphela	-2052
líì	-2053
▁lọjọ	-2054
▁gbí	-2055
▁abi	-2056
ghị	-2057
▁ar	-2058
▁jana	-2059
phezulu	-2060
qi	-2061
▁ă	-2062
ws	-2063
▁sika	-2064
▁kwan	-2065
▁dọ	-2066
▁àlù	-2067
tambo	-2068
lùú	-2069
▁sáwọn	-2070
ʋʋ	-2071
▁án	-2072
vela	-2073
gɔ	-2074
gana	-2075
▁sórí	-2076
sán	-2077
kene	-2078
ṣelu	-2079
▁ìpa	-2080
▁paa	-2081
▁Ra	-2082
▁dza	-2083
▁ose	-2084
▁balẹ	-2085
thetha	-2086
▁run	-2087
nù	-2088
wuma	-2089
▁ube	-2090
▁ẹya	-2091
▁ebi	-2092
funda	-2093
▁obi	-2094
Ku	-2095
gà	-2096
▁Fa	-2097
isema	-2098
▁ṣá	-2099
ingo	-2100
ìjíríà	-2101
pì	-2102
▁com	-2103
làáfíà	-2104
per	-2105
keré	-2106
▁X	-2107
oronavirus	-2108
lisi	-2109
Sirayeli	-2110
hosa	-2111
phin	-2112
▁kuzo	-2113
èjì	-2114
Jehova	-2115
èé	-2116
▁kwenye	-2117
▁wena	-2118
▁elin	-2119
▁agbo	-2120
tar	-2121
▁Asi	-2122
phuma	-2123
daweni	-2124
onge	-2125
▁ijo	-2126
▁kui	-2127
▁steeti	-2128
isu	-2129
ose	-2130
▁kpo	-2131
wane	-2132
banga	-2133
ele	-2134
iswe	-2135
▁baya	-2136
▁ይ	-2137
nira	-2138
▁fojú	-2139
▁ṣíṣe	-2140
tú	-2141
eminyaka	-2142
▁kékeré	-2143
▁ọdọ	-2144
zọ	-2145
lia	-2146
▁nezi	-2147
up	-2148
▁bójú	-2149
▁zabo	-2150
▁ọkunrin	-2151
▁amọ	-2152
1.	-2153
sala	-2154
▁sáàmù	-2155
▁alu	-2156
rk	-2157
dlala	-2158
▁mósè	-2159
▁ìràn	-2160
dzo	-2161
▁sábà	-2162
▁bákan	-2163
▁De	-2164
then	-2165
▁ìjọsìn	-2166
▁Ì	-2167
▁mẹta	-2168
4.	-2169
▁199	-2170
▁ebu	-2171
▁nile	-2172
▁phezu	-2173
too	-2174
▁olóòótọ	-2175
rètí	-2176
▁don	-2177
▁ngaphandle	-2178
weyo	-2179
▁bakan	-2180
ƒe	-2181
▁huo	-2182
▁jɛ	-2183
padà	-2184
▁méjè	-2185
ab	-2186
▁kuku	-2187
zungu	-2188
▁2020	-2189
▁koko	-2190
yanga	-2191
tumọ	-2192
fum	-2193
▁jòhánù	-2194
int	-2195
sela	-2196
fika	-2197
▁mii	-2198
-3	-2199
lógún	-2200
gidi	-2201
lizi	-2202
longo	-2203
▁loo	-2204
▁gbọdọ	-2205
▁njalo	-2206
taka	-2207
Xhosa	-2208
▁aṣáájú	-2209
▁àlàáfíà	-2210
tso	-2211
kelo	-2212
▁mwaka	-2213
isho	-2214
▁táa	-2215
khaya	-2216
yanu	-2217
▁ojo	-2218
for	-2219
▁ija	-2220
lelwa	-2221
tatu	-2222
▁inu	-2223
▁zvino	-2224
▁lowo	-2225
▁Ca	-2226
▁uli	-2227
▁nílẹ	-2228
▁emva	-2229
▁babe	-2230
hn	-2231
▁ṣáájú	-2232
▁umsebenzi	-2233
kwata	-2234
▁phan	-2235
hala	-2236
▁yase	-2237
phezu	-2238
bva	-2239
▁méjèèjì	-2240
▁ipe	-2241
▁yaa	-2242
chin	-2243
▁uyu	-2244
ons	-2245
lini	-2246
▁awu	-2247
▁Rwanda	-2248
▁kedere	-2249
▁ubudala	-2250
Ba	-2251
▁awọ	-2252
phoyisa	-2253
▁gbádùn	-2254
thuba	-2255
▁àyà	-2256
▁imali	-2257
▁oríṣun	-2258
▁alisema	-2259
enz	-2260
▁22	-2261
vaka	-2262
▁láé	-2263
▁síwájú	-2264
▁iwọn	-2265
ywa	-2266
▁nla	-2267
lɛ	-2268
uro	-2269
gha	-2270
▁kuyo	-2271
▁bb	-2272
mber	-2273
▁ajo	-2274
▁iwájú	-2275
▁nin	-2276
▁iche	-2277
ceda	-2278
▁lóòótọ	-2279
muva	-2280
mvu	-2281
térù	-2282
fumana	-2283
▁rọrùn	-2284
▁ìsọ	-2285
pen	-2286
▁júù	-2287
▁mili	-2288
▁wase	-2289
▁nnkan	-2290
burú	-2291
kiti	-2292
▁àgbá	-2293
▁pétérù	-2294
misa	-2295
▁lábẹ	-2296
ble	-2297
▁bàa	-2298
▁ngoko	-2299
gó	-2300
▁ɲ	-2301
tes	-2302
▁tɩ	-2303
▁len	-2304
deni	-2305
▁kom	-2306
▁iindaba	-2307
▁So	-2308
▁aja	-2309
una	-2310
▁23	-2311
▁gbè	-2312
▁nipinlẹ	-2313
▁àjọṣe	-2314
zayo	-2315
lwano	-2316
▁yabo	-2317
▁àlàyé	-2318
▁ŋ	-2319
▁kuro	-2320
▁òwe	-2321
0,	-2322
moto	-2323
▁njengoba	-2324
ika	-2325
yisi	-2326
▁kwaba	-2327
lwazi	-2328
▁dàgbà	-2329
dha	-2330
sìkò	-2331
lile	-2332
lè	-2333
tano	-2334
▁nkan	-2335
▁ìgbéyàwó	-2336
rea	-2337
▁káà	-2338
phila	-2339
▁“	-2340
▁opo	-2341
ger	-2342
▁uY	-2343
▁kalẹ	-2344
thile	-2345
bɔ	-2346
óòmù	-2347
▁ìgb	-2348
▁pátá	-2349
awọn	-2350
▁alàgbà	-2351
ght	-2352
koo	-2353
tungamiri	-2354
▁ere	-2355
1,	-2356
onyana	-2357
gùntàn	-2358
▁dáhùn	-2359
▁márùn	-2360
òó	-2361
▁róòmù	-2362
▁Bi	-2363
mva	-2364
hleli	-2365
▁keji	-2366
fáà	-2367
landela	-2368
▁by	-2369
▁ny	-2370
▁ìbẹ	-2371
▁rino	-2372
▁baada	-2373
od	-2374
▁obinrin	-2375
▁waa	-2376
ral	-2377
Mu	-2378
▁Ne	-2379
game	-2380
▁ibu	-2381
thini	-2382
▁loju	-2383
ola	-2384
▁kuri	-2385
▁iku	-2386
▁hé	-2387
risa	-2388
▁soku	-2389
bere	-2390
sia	-2391
▁nílùú	-2392
▁iwọ	-2393
zala	-2394
▁àgùntàn	-2395
▁darí	-2396
que	-2397
▁kokuba	-2398
▁fò	-2399
gelo	-2400
▁rú	-2401
▁hwe	-2402
▁Ukuba	-2403
rg	-2404
▁say	-2405
mbisa	-2406
lawu	-2407
▁ìṣọ	-2408
▁búburú	-2409
yerɛ	-2410
▁Sta	-2411
▁ọmọdé	-2412
▁kasa	-2413
▁nibẹ	-2414
hina	-2415
Nkulunkulu	-2416
▁àlùfáà	-2417
▁itan	-2418
ire	-2419
▁dú	-2420
▁ero	-2421
▁inga	-2422
▁kanti	-2423
▁ìpinnu	-2424
shwa	-2425
▁azi	-2426
▁Zimbabwe	-2427
▁tl	-2428
ọnu	-2429
túnṣe	-2430
lala	-2431
▁osu	-2432
zungum	-2433
Da	-2434
▁dín	-2435
hlanu	-2436
▁lapho	-2437
xu	-2438
▁ngalo	-2439
sàlẹ	-2440
▁የሚ	-2441
▁Cha	-2442
▁kuta	-2443
▁iran	-2444
silẹ	-2445
▁jin	-2446
med	-2447
▁wonke	-2448
thun	-2449
▁lesiXhosa	-2450
wùjọ	-2451
▁eye	-2452
fanya	-2453
▁òótọ	-2454
phume	-2455
▁dɔ	-2456
ps	-2457
gbara	-2458
ል።	-2459
▁ìṣí	-2460
▁kama	-2461
▁kiri	-2462
▁aga	-2463
shumi	-2464
tri	-2465
▁igbimọ	-2466
▁ngendlela	-2467
jíṣẹ	-2468
▁ngeen	-2469
▁fẹẹ	-2470
▁tawọn	-2471
▁itọ	-2472
qon	-2473
▁taa	-2474
▁julọ	-2475
▁Me	-2476
cwadi	-2477
biri	-2478
isana	-2479
▁nabo	-2480
▁zakhe	-2481
lungi	-2482
▁tɛ	-2483
▁lóye	-2484
jani	-2485
▁adi	-2486
tye	-2487
▁titi	-2488
kumi	-2489
▁Man	-2490
▁ike	-2491
wí	-2492
Bhayi	-2493
▁òdodo	-2494
▁àfi	-2495
fazane	-2496
▁ìjà	-2497
▁aare	-2498
▁mn	-2499
▁arun	-2500
▁sii	-2501
kpo	-2502
▁Re	-2503
dani	-2504
bùn	-2505
▁nk	-2506
xho	-2507
▁apc	-2508
▁sezvo	-2509
vanhu	-2510
▁nango	-2511
▁Ja	-2512
▁din	-2513
▁munyika	-2514
▁Ga	-2515
▁ts	-2516
▁iná	-2517
gcina	-2518
cy	-2519
gula	-2520
banye	-2521
pro	-2522
▁Su	-2523
rúu	-2524
▁ngaphambi	-2525
dii	-2526
▁end	-2527
▁parí	-2528
▁aṣa	-2529
jwa	-2530
tia	-2531
▁lika	-2532
Na	-2533
▁ɖó	-2534
▁dun	-2535
ms	-2536
▁avo	-2537
▁oòrùn	-2538
wú	-2539
▁dìde	-2540
munye	-2541
▁òjíṣẹ	-2542
lwan	-2543
▁sta	-2544
Chi	-2545
zama	-2546
▁bbc	-2547
▁pèsè	-2548
mon	-2549
▁pataki	-2550
▁mò	-2551
gbọràn	-2552
suka	-2553
funeka	-2554
thatha	-2555
yị	-2556
loko	-2557
▁Afrika	-2558
In	-2559
▁zom	-2560
fúnni	-2561
▁imin	-2562
wàá	-2563
▁bya	-2564
thole	-2565
phepha	-2566
▁nípasẹ	-2567
teve	-2568
ifa	-2569
kola	-2570
versi	-2571
ṣó	-2572
rúurú	-2573
▁konke	-2574
▁àpé	-2575
▁ete	-2576
▁nàìjíríà	-2577
zele	-2578
sti	-2579
▁iṣẹlẹ	-2580
Sa	-2581
manga	-2582
tt	-2583
ul	-2584
▁máà	-2585
▁láyọ	-2586
▁kìíní	-2587
qha	-2588
▁kuwe	-2589
tíù	-2590
▁UM	-2591
yèsí	-2592
▁àtọ	-2593
tolo	-2594
▁poli	-2595
▁ọpọlọpọ	-2596
▁lóde	-2597
▁ọlọrun	-2598
dwe	-2599
▁apho	-2600
lowo	-2601
outh	-2602
▁atẹ	-2603
mìnira	-2604
gcwele	-2605
▁nikan	-2606
▁wẹ	-2607
rúsá	-2608
▁1,	-2609
▁kéré	-2610
▁yé	-2611
▁ìrètí	-2612
mụ	-2613
kore	-2614
▁maba	-2615
▁kwabo	-2616
vyo	-2617
mnye	-2618
viri	-2619
▁con	-2620
▁òkun	-2621
nan	-2622
▁àbá	-2623
▁ṣoṣo	-2624
olo	-2625
▁arábìnrin	-2626
yango	-2627
▁yesi	-2628
▁àsọtẹ	-2629
▁ìyè	-2630
▁baye	-2631
▁wey	-2632
▁kwin	-2633
alaye	-2634
gene	-2635
▁adu	-2636
▁burúkú	-2637
▁azɔ	-2638
▁ilana	-2639
▁olórí	-2640
▁oṣelu	-2641
jade	-2642
▁tiwa	-2643
5.	-2644
ròrò	-2645
▁kii	-2646
▁akọkọ	-2647
▁china	-2648
os	-2649
▁Di	-2650
yeni	-2651
▁orukọ	-2652
fì	-2653
pfu	-2654
uri	-2655
▁lan	-2656
▁mara	-2657
▁Ju	-2658
bara	-2659
▁mmadụ	-2660
ìsì	-2661
▁umun	-2662
▁igama	-2663
kɛ	-2664
res	-2665
▁yeku	-2666
ìyànjú	-2667
ụrụ	-2668
▁she	-2669
Va	-2670
▁kin	-2671
▁pamwe	-2672
▁nɛ	-2673
▁van	-2674
▁egbe	-2675
mwa	-2676
zinto	-2677
▁hurumende	-2678
▁àjò	-2679
hlabeni	-2680
▁onírúurú	-2681
▁ake	-2682
▁igbo	-2683
▁aráyé	-2684
▁ያ	-2685
▁ewu	-2686
▁yaba	-2687
sé	-2688
▁aje	-2689
▁too	-2690
▁bazo	-2691
rn	-2692
enda	-2693
zania	-2694
bela	-2695
pata	-2696
▁isẹ	-2697
kòókò	-2698
lwane	-2699
tions	-2700
50	-2701
▁bù	-2702
kọta	-2703
lwini	-2704
Wa	-2705
pp	-2706
▁0	-2707
▁lee	-2708
▁hùwà	-2709
hwe	-2710
line	-2711
▁ẹlòmíràn	-2712
▁mátíù	-2713
▁zu	-2714
▁àd	-2715
▁gban	-2716
bì	-2717
▁ṣalaye	-2718
eli	-2719
▁meje	-2720
▁siya	-2721
rúsálẹ	-2722
▁jì	-2723
▁ábú	-2724
▁kuya	-2725
dàá	-2726
ńgẹ	-2727
▁ụlọ	-2728
▁àìsàn	-2729
dini	-2730
▁sita	-2731
jútó	-2732
ọni	-2733
ttoo	-2734
▁kókó	-2735
yele	-2736
▁yake	-2737
júmọ	-2738
wani	-2739
▁látọ	-2740
pada	-2741
ʋʋm	-2742
▁esin	-2743
▁Africa	-2744
▁àpó	-2745
▁sakhe	-2746
mve	-2747
soro	-2748
oma	-2749
▁oṣiṣẹ	-2750
▁wòlíì	-2751
jin	-2752
▁30	-2753
koso	-2754
▁umntu	-2755
▁ngesikhathi	-2756
7.	-2757
▁ìdájọ	-2758
▁iṣe	-2759
zva	-2760
zza	-2761
sini	-2762
▁daa	-2763
▁olori	-2764
▁ìwá	-2765
soke	-2766
phele	-2767
▁jú	-2768
dhi	-2769
▁alaa	-2770
▁Wathi	-2771
fù	-2772
▁òṣì	-2773
▁wake	-2774
▁dem	-2775
uku	-2776
cela	-2777
saba	-2778
furu	-2779
▁nyi	-2780
▁ẹrú	-2781
▁ipin	-2782
kunga	-2783
▁kwakho	-2784
7,	-2785
moya	-2786
papọ	-2787
ziwe	-2788
édé	-2789
kalẹ	-2790
▁nemi	-2791
6.	-2792
▁ወ	-2793
▁dípò	-2794
▁To	-2795
fá	-2796
▁ín	-2797
yawo	-2798
▁Do	-2799
tege	-2800
▁ale	-2801
tiri	-2802
▁nase	-2803
kisi	-2804
▁kwuru	-2805
meni	-2806
▁ine	-2807
zungumza	-2808
ende	-2809
▁ngum	-2810
▁gbìyànjú	-2811
▁ré	-2812
dzwa	-2813
▁odun	-2814
▁yama	-2815
sebenz	-2816
▁akoko	-2817
mulo	-2818
▁bakho	-2819
▁babo	-2820
wè	-2821
riya	-2822
4,	-2823
ah	-2824
fund	-2825
kítà	-2826
▁nam	-2827
▁tse	-2828
▁hayo	-2829
gon	-2830
▁202	-2831
▁endaweni	-2832
9.	-2833
kụ	-2834
bọmi	-2835
▁láǹfààní	-2836
▁débi	-2837
▁abanye	-2838
▁orilẹede	-2839
ven	-2840
ut	-2841
gabe	-2842
hana	-2843
▁epo	-2844
2.	-2845
▁níwọ	-2846
▁wesi	-2847
phendu	-2848
bonakala	-2849
hurumende	-2850
▁ẹbọ	-2851
ቸው	-2852
nye	-2853
▁gwa	-2854
▁ìgbìmọ	-2855
konzi	-2856
▁28	-2857
▁ọmọbìnrin	-2858
▁21	-2859
▁neva	-2860
▁ngokuthi	-2861
▁kọja	-2862
kejì	-2863
▁rin	-2864
bàá	-2865
▁gó	-2866
vide	-2867
dai	-2868
▁nwa	-2869
lòó	-2870
▁imihla	-2871
nes	-2872
▁sile	-2873
▁ọrẹ	-2874
▁nìṣó	-2875
▁ìran	-2876
▁zethu	-2877
▁yethu	-2878
3.	-2879
bụ	-2880
ዎች	-2881
▁tẹlẹ	-2882
tɛ	-2883
ile	-2884
▁hilo	-2885
pátá	-2886
▁Ye	-2887
qubo	-2888
..	-2889
anda	-2890
jongo	-2891
▁ac	-2892
enye	-2893
▁àgbègbè	-2894
og	-2895
▁oye	-2896
siwaju	-2897
▁wee	-2898
▁dịka	-2899
khawule	-2900
úni	-2901
▁lin	-2902
▁uzo	-2903
mpe	-2904
úgbò	-2905
svi	-2906
jé	-2907
róró	-2908
▁bwa	-2909
▁ire	-2910
▁mẹrin	-2911
ys	-2912
kia	-2913
wiri	-2914
ìnà	-2915
gazi	-2916
hamma	-2917
▁akan	-2918
▁ààrẹ	-2919
▁pátápátá	-2920
▁pd	-2921
▁afẹ	-2922
▁yòó	-2923
tla	-2924
▁ape	-2925
hlangan	-2926
hulu	-2927
iri	-2928
▁Be	-2929
rere	-2930
6,	-2931
rump	-2932
bùkún	-2933
▁iza	-2934
▁ìrẹ	-2935
ime	-2936
tani	-2937
tero	-2938
rìbọmi	-2939
kira	-2940
▁nso	-2941
tudio	-2942
tuu	-2943
uda	-2944
cebo	-2945
▁duro	-2946
▁new	-2947
▁ìdáhùn	-2948
ụọ	-2949
▁ìkó	-2950
▁àpéjọ	-2951
▁ìrí	-2952
sele	-2953
▁kwesi	-2954
▁emhlabeni	-2955
Le	-2956
khun	-2957
▁dandan	-2958
▁ìsọfúnni	-2959
▁Lu	-2960
▁aji	-2961
▁mbo	-2962
para	-2963
lọwọ	-2964
▁kpó	-2965
ganda	-2966
hlukene	-2967
▁Kun	-2968
▁ìlérí	-2969
▁Tan	-2970
cs	-2971
bérù	-2972
▁níwájú	-2973
kayo	-2974
▁ipade	-2975
dent	-2976
yithi	-2977
moja	-2978
wala	-2979
mpu	-2980
▁ezo	-2981
▁ibù	-2982
dzira	-2983
▁aho	-2984
▁ìkọ	-2985
▁miiran	-2986
keza	-2987
▁nesi	-2988
rúndún	-2989
▁pasi	-2990
,"	-2991
tor	-2992
▁huyo	-2993
▁nemu	-2994
▁oyo	-2995
▁shi	-2996
▁ndipo	-2997
▁basa	-2998
▁nǔ	-2999
▁100	-3000
▁miran	-3001
▁sànmánì	-3002
dị	-3003
▁Uthe	-3004
▁njenge	-3005
▁ẹkọ	-3006
▁nta	-3007
▁win	-3008
▁ábúrá	-3009
▁ayẹyẹ	-3010
Ka	-3011
▁ìrànlọ	-3012
▁ìwádìí	-3013
kamp	-3014
▁agb	-3015
▁iwo	-3016
▁hébérù	-3017
▁us	-3018
9,	-3019
ster	-3020
▁tara	-3021
▁mélòó	-3022
mme	-3023
▁Isi	-3024
qela	-3025
▁eme	-3026
▁àìní	-3027
▁alaye	-3028
▁gun	-3029
▁tin	-3030
fundo	-3031
▁apapọ	-3032
▁àbí	-3033
eṣẹ	-3034
▁umuntu	-3035
▁àṣe	-3036
gy	-3037
bane	-3038
▁èṣù	-3039
▁mere	-3040
▁indawo	-3041
mar	-3042
mà	-3043
zweni	-3044
▁banga	-3045
▁aí	-3046
júwe	-3047
▁kẹta	-3048
khosi	-3049
▁irọ	-3050
▁shu	-3051
▁ika	-3052
▁ogún	-3053
▁òróró	-3054
kóhun	-3055
▁àpótí	-3056
▁ìṣà	-3057
▁zviri	-3058
5,	-3059
▁Aki	-3060
zv	-3061
ls	-3062
▁atun	-3063
▁nokuba	-3064
▁sha	-3065
thiwa	-3066
▁wabo	-3067
▁ìbùkún	-3068
pera	-3069
▁gbɛ	-3070
▁bato	-3071
▁déédé	-3072
▁ìwò	-3073
amu	-3074
▁aláṣẹ	-3075
▁ìsàlẹ	-3076
▁cho	-3077
▁méje	-3078
▁àgbáyé	-3079
▁kíyè	-3080
▁kunga	-3081
▁chin	-3082
▁Sala	-3083
▁olùkọ	-3084
▁ohunkóhun	-3085
ir	-3086
▁áńgẹ	-3087
▁ava	-3088
kanga	-3089
lungelo	-3090
▁As	-3091
▁aṣofin	-3092
gin	-3093
kita	-3094
sale	-3095
áàbò	-3096
▁gɔ	-3097
▁èé	-3098
▁òǹ	-3099
▁yam	-3100
kini	-3101
▁Dar	-3102
ds	-3103
▁coronavirus	-3104
fọwọ	-3105
▁Dr	-3106
keji	-3107
▁ṣètò	-3108
liziyo	-3109
▁jan	-3110
ọrọ	-3111
Nkosi	-3112
▁fífi	-3113
swa	-3114
muntu	-3115
▁kuna	-3116
▁nya	-3117
khuluma	-3118
▁sílé	-3119
em	-3120
ua	-3121
dínlógún	-3122
▁ɖè	-3123
▁ọga	-3124
▁wọlé	-3125
zimba	-3126
▁pese	-3127
pèjúwe	-3128
▁ìbílẹ	-3129
enziswa	-3130
▁igbesẹ	-3131
bọn	-3132
fò	-3133
▁lilo	-3134
▁titun	-3135
ira	-3136
▁apha	-3137
▁base	-3138
mis	-3139
▁siwaju	-3140
hwa	-3141
nga	-3142
▁ẹsun	-3143
▁ọmọkùnrin	-3144
yon	-3145
▁àrí	-3146
▁pípé	-3147
▁ṣiṣe	-3148
ber	-3149
▁sùn	-3150
khawuleza	-3151
▁pín	-3152
▁at	-3153
▁oba	-3154
chezo	-3155
▁zakho	-3156
ili	-3157
▁tètè	-3158
▁iyo	-3159
▁múra	-3160
▁retí	-3161
▁ipá	-3162
▁àyí	-3163
▁kuno	-3164
▁neen	-3165
▁No	-3166
▁isin	-3167
2,	-3168
▁nch	-3169
▁hun	-3170
▁ngokwe	-3171
kalo	-3172
koro	-3173
ID	-3174
cal	-3175
▁ọsẹ	-3176
▁kwama	-3177
▁ibeere	-3178
cane	-3179
▁blo	-3180
▁yango	-3181
jù	-3182
nd	-3183
port	-3184
▁zen	-3185
▁ndawo	-3186
faka	-3187
▁kukho	-3188
versity	-3189
zeke	-3190
ishwa	-3191
pita	-3192
yona	-3193
▁bin	-3194
▁niluu	-3195
▁kán	-3196
▁aabo	-3197
buzo	-3198
furufu	-3199
bonisa	-3200
kọtaya	-3201
cia	-3202
hl	-3203
wer	-3204
aju	-3205
iseke	-3206
▁tọkọtaya	-3207
▁yom	-3208
yile	-3209
▁àwùjọ	-3210
▁ukwenza	-3211
dlo	-3212
gue	-3213
▁pamu	-3214
rịa	-3215
ǹde	-3216
geni	-3217
▁jìn	-3218
▁kàkà	-3219
▁ìtumọ	-3220
andi	-3221
waka	-3222
▁Ana	-3223
▁imu	-3224
▁sókè	-3225
laa	-3226
bvu	-3227
rka	-3228
▁eM	-3229
▁Nge	-3230
▁òpin	-3231
▁Ame	-3232
▁ngaba	-3233
3,	-3234
thwe	-3235
rora	-3236
tari	-3237
▁koo	-3238
▁lonke	-3239
gwu	-3240
tch	-3241
waa	-3242
▁kpɔ	-3243
▁enye	-3244
kpe	-3245
and	-3246
▁zinga	-3247
bari	-3248
gera	-3249
mile	-3250
-0	-3251
sima	-3252
▁akin	-3253
bulala	-3254
SA	-3255
mes	-3256
unda	-3257
lwana	-3258
loku	-3259
▁fawọn	-3260
▁gbangba	-3261
bia	-3262
fike	-3263
▁ethi	-3264
▁déédéé	-3265
tira	-3266
humi	-3267
àwọn	-3268
▁kárí	-3269
hanga	-3270
▁lakho	-3271
thaba	-3272
▁nchini	-3273
▁malunga	-3274
ịa	-3275
kota	-3276
▁ife	-3277
▁Mr	-3278
▁Vi	-3279
▁sín	-3280
▁lom	-3281
dziko	-3282
▁kati	-3283
ag	-3284
temo	-3285
▁ofurufu	-3286
hámù	-3287
▁jóò	-3288
▁òṣìṣẹ	-3289
gum	-3290
lima	-3291
▁free	-3292
10	-3293
▁era	-3294
alu	-3295
▁ɖi	-3296
guqu	-3297
▁ami	-3298
▁nilẹ	-3299
▁ànímọ	-3300
▁atọ	-3301
▁ማ	-3302
qhubeka	-3303
▁ifẹ	-3304
▁ẹranko	-3305
iwe	-3306
bomi	-3307
cheza	-3308
▁ስ	-3309
▁yì	-3310
hambe	-3311
shandi	-3312
zon	-3313
▁ée	-3314
solwa	-3315
▁eleyi	-3316
▁tõ	-3317
gari	-3318
hugu	-3319
▁màá	-3320
eji	-3321
▁Uma	-3322
▁aísáyà	-3323
▁gbɔ	-3324
▁nyu	-3325
arare	-3326
▁ábúráhámù	-3327
mé	-3328
▁os	-3329
▁ngoL	-3330
▁Salaam	-3331
eru	-3332
Af	-3333
Ca	-3334
sandla	-3335
▁Tsh	-3336
ṣu	-3337
mìnà	-3338
▁ijoba	-3339
win	-3340
-201	-3341
kampani	-3342
▁àtúnṣe	-3343
xha	-3344
▁rèé	-3345
▁bona	-3346
idi	-3347
kọọ	-3348
▁agbaye	-3349
▁ɖa	-3350
▁tra	-3351
▁ọrụ	-3352
▁ṣàkóso	-3353
▁óò	-3354
▁Amai	-3355
▁zvin	-3356
sinsìn	-3357
▁use	-3358
▁èyíké	-3359
▁ay	-3360
▁bam	-3361
▁gírí	-3362
ther	-3363
banda	-3364
dlebe	-3365
dodana	-3366
▁oro	-3367
▁atawọn	-3368
ṣíà	-3369
mira	-3370
▁kusa	-3371
▁naira	-3372
giri	-3373
▁Ro	-3374
mɔ	-3375
▁anthu	-3376
▁bathi	-3377
▁dání	-3378
phandaba	-3379
▁gé	-3380
vume	-3381
keni	-3382
▁gbàgbé	-3383
era	-3384
▁èyíkéyìí	-3385
gbon	-3386
lilo	-3387
gqo	-3388
ity	-3389
oli	-3390
▁uba	-3391
▁apẹ	-3392
▁Tanzania	-3393
leli	-3394
hwɛ	-3395
rasi	-3396
▁koma	-3397
jìn	-3398
ctor	-3399
▁àwọ	-3400
▁gidigidi	-3401
thela	-3402
pù	-3403
▁nyí	-3404
svika	-3405
▁ìrìn	-3406
ristu	-3407
hlabathi	-3408
▁ila	-3409
▁Ẹlẹ	-3410
▁ọmọlẹ	-3411
▁oògùn	-3412
toa	-3413
▁iminyaka	-3414
wə	-3415
▁gọ	-3416
▁pdp	-3417
▁bazi	-3418
tán	-3419
▁ìlà	-3420
▁ipinle	-3421
▁ing	-3422
▁èso	-3423
▁ṣòro	-3424
die	-3425
▁oyin	-3426
bwo	-3427
ɔnɔ	-3428
kale	-3429
gí	-3430
zɔ	-3431
ṣèlú	-3432
▁nni	-3433
▁ngokukhawuleza	-3434
kuthi	-3435
▁gíga	-3436
▁kwezi	-3437
▁lorilẹ	-3438
vana	-3439
▁ọgbà	-3440
▁Ngokuba	-3441
hálà	-3442
zinye	-3443
▁xɔ	-3444
qembu	-3445
▁kubva	-3446
▁iji	-3447
▁onke	-3448
ist	-3449
siza	-3450
▁ayo	-3451
rìíra	-3452
ngàn	-3453
▁Yi	-3454
▁uJ	-3455
▁mata	-3456
▁ọgbẹ	-3457
con	-3458
▁kekere	-3459
bítì	-3460
▁uza	-3461
▁mpa	-3462
▁aago	-3463
shure	-3464
▁àjà	-3465
jíbítì	-3466
sident	-3467
hammadu	-3468
▁idagba	-3469
tura	-3470
▁cya	-3471
laye	-3472
▁jíjẹ	-3473
▁sinu	-3474
▁jerúsálẹ	-3475
wini	-3476
ojúmọ	-3477
▁jíròrò	-3478
fú	-3479
ary	-3480
kama	-3481
Davide	-3482
▁afọ	-3483
▁nna	-3484
▁àkọsílẹ	-3485
ላይ	-3486
ore	-3487
▁uzi	-3488
▁tipa	-3489
▁òye	-3490
▁ohùn	-3491
▁àádọ	-3492
▁dáàbò	-3493
▁fúnni	-3494
▁tirẹ	-3495
hinji	-3496
▁láàyè	-3497
▁ẹlòmíì	-3498
▁ene	-3499
▁vachiti	-3500
isebenzi	-3501
▁nne	-3502
▁ọzọ	-3503
▁1.	-3504
▁há	-3505
▁የተ	-3506
▁wàhálà	-3507
▁bə	-3508
dájú	-3509
zị	-3510
-4	-3511
eme	-3512
hyɛ	-3513
dare	-3514
kiso	-3515
ìkì	-3516
▁sapá	-3517
▁sà	-3518
▁000	-3519
▁Min	-3520
pà	-3521
chan	-3522
▁jóòbù	-3523
tere	-3524
▁uNkulunkulu	-3525
kra	-3526
ńtì	-3527
bantwana	-3528
ike	-3529
▁saba	-3530
▁aṣẹ	-3531
▁uwe	-3532
▁ụmụ	-3533
jengo	-3534
▁pə	-3535
▁sú	-3536
▁ifo	-3537
▁kuwo	-3538
isekedi	-3539
ftwa	-3540
▁ẹyẹ	-3541
phinde	-3542
▁uS	-3543
▁pàdé	-3544
papa	-3545
yoni	-3546
▁kubu	-3547
30	-3548
▁Ngi	-3549
im	-3550
sole	-3551
hlelo	-3552
▁hɔ	-3553
▁dis	-3554
▁Mkuu	-3555
▁lase	-3556
▁sakho	-3557
▁web	-3558
▁baku	-3559
▁Tshisekedi	-3560
▁ààbò	-3561
lungise	-3562
shaya	-3563
hora	-3564
dlule	-3565
tə	-3566
ɖé	-3567
▁xo	-3568
▁dúpẹ	-3569
▁nobu	-3570
▁wọle	-3571
▁xó	-3572
▁lédè	-3573
▁iliyo	-3574
lande	-3575
▁fɛ	-3576
▁kíkọ	-3577
▁waya	-3578
ida	-3579
dinga	-3580
▁umthetho	-3581
juto	-3582
liwa	-3583
▁para	-3584
gójì	-3585
▁ìdà	-3586
▁tiwọn	-3587
▁káàkiri	-3588
thin	-3589
▁onga	-3590
phephandaba	-3591
daran	-3592
▁lẹhin	-3593
▁gbigba	-3594
▁minisi	-3595
▁zina	-3596
▁idagbasoke	-3597
ken	-3598
Ngo	-3599
bile	-3600
▁mana	-3601
bisi	-3602
▁ngemuva	-3603
ela	-3604
vele	-3605
ftware	-3606
8.	-3607
twe	-3608
▁iso	-3609
▁wama	-3610
▁fidio	-3611
kise	-3612
▁iṣo	-3613
baka	-3614
itwa	-3615
▁vya	-3616
ganga	-3617
▁une	-3618
gboyà	-3619
▁moko	-3620
kata	-3621
zira	-3622
▁singa	-3623
▁lọọ	-3624
▁bone	-3625
▁rara	-3626
▁ìlera	-3627
▁nigeria	-3628
▁njengoko	-3629
▁lokhu	-3630
konzo	-3631
bert	-3632
▁Kan	-3633
▁aaye	-3634
xibele	-3635
▁En	-3636
▁VaM	-3637
lay	-3638
kwọ	-3639
▁borí	-3640
▁dojú	-3641
▁leyo	-3642
▁twitter	-3643
mntu	-3644
rama	-3645
▁gbò	-3646
▁pic	-3647
endele	-3648
▁wọnyi	-3649
ánwò	-3650
▁int	-3651
▁síbi	-3652
eɛ	-3653
▁ም	-3654
gadzi	-3655
menti	-3656
▁yanjú	-3657
ses	-3658
theng	-3659
rera	-3660
▁huku	-3661
▁Studio	-3662
ft	-3663
xhu	-3664
mbira	-3665
gram	-3666
mani	-3667
▁Ben	-3668
▁èké	-3669
▁bere	-3670
▁alaga	-3671
▁zama	-3672
▁Akizungumza	-3673
▁FC	-3674
▁kaku	-3675
▁oríṣi	-3676
▁kon	-3677
▁àgọ	-3678
líọ	-3679
▁2.	-3680
mótì	-3681
ssa	-3682
gekho	-3683
ig	-3684
▁labẹ	-3685
▁nyika	-3686
fíìsì	-3687
▁lásìkò	-3688
▁sù	-3689
onzi	-3690
▁ró	-3691
leke	-3692
▁Pro	-3693
manzi	-3694
▁muma	-3695
twitter	-3696
▁kufuneka	-3697
▁itọju	-3698
Ko	-3699
bodo	-3700
▁ìrà	-3701
cebook	-3702
The	-3703
cial	-3704
▁ádá	-3705
▁Ru	-3706
▁alẹ	-3707
tic	-3708
úùkù	-3709
▁wã	-3710
▁yayo	-3711
zhinji	-3712
▁lúùkù	-3713
dy	-3714
ziri	-3715
▁àárín	-3716
▁Aku	-3717
▁makumi	-3718
▁mushure	-3719
komo	-3720
▁thu	-3721
ulu	-3722
ress	-3723
themba	-3724
▁ñ	-3725
▁fɔ	-3726
belo	-3727
duro	-3728
vuga	-3729
▁eba	-3730
▁bana	-3731
est	-3732
qale	-3733
▁el	-3734
▁esa	-3735
▁labo	-3736
sinsìnyí	-3737
▁oorun	-3738
▁àìmọ	-3739
▁báwọn	-3740
▁ex	-3741
gala	-3742
limi	-3743
▁laba	-3744
▁una	-3745
hàn	-3746
▁elé	-3747
▁agbẹ	-3748
▁ú	-3749
8,	-3750
buka	-3751
logun	-3752
ṣá	-3753
kome	-3754
▁àtijọ	-3755
▁Jèhófà	-3756
ea	-3757
▁gú	-3758
rìṣà	-3759
▁nyɔ	-3760
sara	-3761
▁odò	-3762
▁beba	-3763
ot	-3764
▁eN	-3765
▁ìṣè	-3766
ríńtì	-3767
daa	-3768
layo	-3769
rikali	-3770
rana	-3771
yini	-3772
▁mon	-3773
▁suka	-3774
só	-3775
▁bò	-3776
kqubo	-3777
enya	-3778
▁እንደ	-3779
▁timu	-3780
▁mp	-3781
thweni	-3782
▁kuita	-3783
▁mai	-3784
▁ẹmi	-3785
▁rezve	-3786
kara	-3787
▁usi	-3788
mbani	-3789
mbali	-3790
▁ádámù	-3791
kali	-3792
qes	-3793
▁ƒe	-3794
lẹyin	-3795
▁bawo	-3796
▁eze	-3797
tua	-3798
beke	-3799
fazi	-3800
mbra	-3801
▁tímótì	-3802
pìlì	-3803
ces	-3804
pona	-3805
tela	-3806
ula	-3807
▁hao	-3808
genda	-3809
▁lọdun	-3810
angagwa	-3811
▁Al	-3812
zise	-3813
▁amaphoyisa	-3814
▁tlha	-3815
▁akukho	-3816
▁gómìnà	-3817
xibelelwano	-3818
▁lákòókò	-3819
ṣinṣin	-3820
▁onímọ	-3821
.1	-3822
maki	-3823
ṣa	-3824
▁izvi	-3825
udza	-3826
▁kune	-3827
▁besi	-3828
ef	-3829
bra	-3830
▁ena	-3831
kis	-3832
▁Com	-3833
fukwa	-3834
anethi	-3835
▁marun	-3836
▁ብ	-3837
▁láìsí	-3838
▁software	-3839
cc	-3840
ddwa	-3841
▁Ri	-3842
▁cewa	-3843
dda	-3844
fia	-3845
▁akhe	-3846
▁wahala	-3847
▁akho	-3848
solezwe	-3849
▁ibadan	-3850
sị	-3851
pala	-3852
▁àtẹ	-3853
▁dájúdájú	-3854
ril	-3855
ẹjọ	-3856
▁lorile	-3857
▁ግ	-3858
▁ilera	-3859
yọrí	-3860
▁ima	-3861
Harare	-3862
op	-3863
▁ɖu	-3864
tanda	-3865
phakade	-3866
taa	-3867
jó	-3868
sem	-3869
▁amo	-3870
▁abuja	-3871
▁sóló	-3872
gs	-3873
fumane	-3874
▁United	-3875
▁nye	-3876
▁ngezi	-3877
▁amandla	-3878
fé	-3879
▁ògo	-3880
▁wame	-3881
nangagwa	-3882
▁njenga	-3883
Bhayibhi	-3884
▁kaakiri	-3885
▁phantsi	-3886
▁UN	-3887
▁Ban	-3888
▁jinlẹ	-3889
▁kahle	-3890
▁ukuya	-3891
wira	-3892
▁ido	-3893
zantsi	-3894
mai	-3895
lewa	-3896
Yi	-3897
mas	-3898
bh	-3899
▁létí	-3900
lingan	-3901
ard	-3902
kantolo	-3903
▁Nigeria	-3904
▁cy	-3905
▁ẹka	-3906
▁kẹrin	-3907
mveliso	-3908
bíni	-3909
natha	-3910
▁pʋ	-3911
gona	-3912
guva	-3913
kòrò	-3914
▁bese	-3915
▁nayo	-3916
▁Congo	-3917
yane	-3918
▁usa	-3919
kpa	-3920
Is	-3921
▁Ɔ	-3922
vun	-3923
goma	-3924
▁Amu	-3925
kumbi	-3926
▁bwe	-3927
▁gbaju	-3928
laba	-3929
▁kere	-3930
▁Gu	-3931
▁ọlá	-3932
▁vana	-3933
▁gá	-3934
▁oneminyaka	-3935
▁tù	-3936
gɛ	-3937
misi	-3938
▁fulani	-3939
.,	-3940
▁waki	-3941
dú	-3942
ks	-3943
▁achi	-3944
▁júdà	-3945
lic	-3946
▁lama	-3947
▁tita	-3948
yis	-3949
▁Hu	-3950
zive	-3951
▁amu	-3952
▁líle	-3953
▁màmá	-3954
jwe	-3955
▁kúkú	-3956
purisa	-3957
▁indoda	-3958
▁iyawo	-3959
hà	-3960
▁ṣó	-3961
▁ayẹwo	-3962
▁ṣèlérí	-3963
▁phambili	-3964
gcwa	-3965
▁soke	-3966
▁data	-3967
vɔ	-3968
▁nku	-3969
▁pọn	-3970
gqina	-3971
▁ubun	-3972
▁beere	-3973
llo	-3974
lira	-3975
side	-3976
mbili	-3977
▁agbègbè	-3978
▁araalu	-3979
▁198	-3980
por	-3981
▁ነው	-3982
▁huu	-3983
yamba	-3984
▁sise	-3985
yín	-3986
▁ሰ	-3987
▁one	-3988
▁Kuba	-3989
▁ufuna	-3990
ia	-3991
moc	-3992
▁sis	-3993
▁ate	-3994
▁lə	-3995
ríṣi	-3996
tshu	-3997
▁dókítà	-3998
vin	-3999
▁50	-4000
▁እና	-4001
▁Trump	-4002
▁ume	-4003
▁ọyọ	-4004
lówó	-4005
thethe	-4006
▁ezweni	-4007
▁jókòó	-4008
▁adwuma	-4009
bola	-4010
▁chete	-4011
sis	-4012
mente	-4013
▁online	-4014
Uku	-4015
bisa	-4016
hola	-4017
genxa	-4018
mbini	-4019
▁xwe	-4020
▁2017	-4021
Fa	-4022
qhe	-4023
sika	-4024
▁eng	-4025
▁odi	-4026
lly	-4027
tlho	-4028
▁Sɛ	-4029
▁kojú	-4030
▁or	-4031
▁kuze	-4032
▁seku	-4033
▁ip	-4034
duna	-4035
lika	-4036
▁Kodwa	-4037
▁tattoo	-4038
▁pupọ	-4039
▁27	-4040
▁Ní	-4041
▁ɖé	-4042
akoso	-4043
▁pelu	-4044
▁paapaa	-4045
urope	-4046
▁Ngoku	-4047
theni	-4048
▁dzin	-4049
▁zan	-4050
▁ìbà	-4051
▁adati	-4052
▁har	-4053
▁Nya	-4054
rance	-4055
▁Ghana	-4056
Mo	-4057
▁jósẹ	-4058
▁pipe	-4059
▁wayo	-4060
▁Wi	-4061
▁didara	-4062
▁mfundi	-4063
▁mejeeji	-4064
koa	-4065
máyà	-4066
▁Amurka	-4067
ague	-4068
liswa	-4069
phula	-4070
▁ukuzi	-4071
▁amanzi	-4072
▁láìpẹ	-4073
▁aworan	-4074
lungileyo	-4075
imu	-4076
sina	-4077
manye	-4078
▁boko	-4079
kwini	-4080
▁inter	-4081
raga	-4082
▁abantwana	-4083
▁ag	-4084
pụta	-4085
▁buru	-4086
kwụ	-4087
giye	-4088
lòpọ	-4089
▁emin	-4090
khumbu	-4091
▁dè	-4092
▁mbe	-4093
▁abadlali	-4094
ǎn	-4095
▁26	-4096
▁31	-4097
▁akwa	-4098
wayo	-4099
▁RDC	-4100
at	-4101
▁ɛn	-4102
huri	-4103
llion	-4104
patara	-4105
▁bun	-4106
▁sesi	-4107
▁ɲɛ	-4108
gbin	-4109
▁get	-4110
▁ìmú	-4111
ure	-4112
lokho	-4113
▁yavo	-4114
▁ziya	-4115
BC	-4116
ture	-4117
gaban	-4118
▁mọyì	-4119
▁ondo	-4120
▁tàwọn	-4121
▁alo	-4122
▁kuko	-4123
mbudziko	-4124
▁kura	-4125
▁kusu	-4126
▁vo	-4127
kera	-4128
▁ngoLwesi	-4129
yanju	-4130
▁kupi	-4131
úrù	-4132
lileyo	-4133
ṣìí	-4134
▁aha	-4135
▁fin	-4136
gcono	-4137
▁gbɔn	-4138
▁Àwọn	-4139
▁ìjì	-4140
▁òmìnira	-4141
uma	-4142
▁kumu	-4143
▁kíkún	-4144
kumkani	-4145
▁uyi	-4146
mbiri	-4147
▁Isolezwe	-4148
lam	-4149
lane	-4150
sani	-4151
vula	-4152
▁ngokwa	-4153
kpó	-4154
ńpìlì	-4155
gàn	-4156
rongwa	-4157
▁lásán	-4158
gé	-4159
rha	-4160
▁sõ	-4161
ding	-4162
▁mboka	-4163
lejò	-4164
▁sho	-4165
qeqes	-4166
▁giga	-4167
▁mali	-4168
▁ul	-4169
lónì	-4170
nẹ	-4171
batsi	-4172
▁iléeṣẹ	-4173
▁San	-4174
▁lókun	-4175
siti	-4176
sayithi	-4177
),	-4178
uth	-4179
sion	-4180
hlawu	-4181
kunye	-4182
▁asiko	-4183
ነት	-4184
gbu	-4185
tro	-4186
tta	-4187
gbìn	-4188
▁dárí	-4189
▁iindlebe	-4190
ff	-4191
▁bì	-4192
▁ológun	-4193
tte	-4194
webhu	-4195
▁misa	-4196
bɛn	-4197
▁bw	-4198
▁yatọ	-4199
▁yini	-4200
▁ọchị	-4201
dùúgbò	-4202
gqu	-4203
▁ekhaya	-4204
▁È	-4205
chirwere	-4206
...	-4207
bye	-4208
kambi	-4209
▁enkulu	-4210
thandi	-4211
▁ago	-4212
▁uko	-4213
lelwe	-4214
kàtí	-4215
▁nyaya	-4216
▁ẹgbẹrun	-4217
une	-4218
lobo	-4219
rans	-4220
▁ngeenjongo	-4221
▁ባ	-4222
▁xwè	-4223
▁kwema	-4224
don	-4225
▁Rre	-4226
▁siku	-4227
▁bango	-4228
▁erékù	-4229
▁ndiya	-4230
▁uYesu	-4231
▁ɖokpo	-4232
jɛ	-4233
mìí	-4234
▁wó	-4235
geza	-4236
▁tẹli	-4237
ongwe	-4238
▁jákọ	-4239
▁abahleli	-4240
umu	-4241
▁Nà	-4242
▁ijọ	-4243
▁òde	-4244
▁watu	-4245
▁muhammadu	-4246
▁ìb	-4247
buya	-4248
kúṣe	-4249
bandla	-4250
▁ṣègbé	-4251
phakela	-4252
▁kumele	-4253
oses	-4254
hlale	-4255
tengo	-4256
▁John	-4257
▁papa	-4258
▁péré	-4259
▁tʋʋm	-4260
▁ṣeto	-4261
▁minisita	-4262
▁4.	-4263
tele	-4264
onyaka	-4265
Pa	-4266
▁oluwa	-4267
▁uJehova	-4268
▁rà	-4269
▁wè	-4270
dari	-4271
chito	-4272
▁àyíká	-4273
lóhùn	-4274
▁wúlò	-4275
▁olódodo	-4276
guru	-4277
▁Pre	-4278
▁eyo	-4279
▁kuda	-4280
▁muna	-4281
kya	-4282
▁bara	-4283
▁etí	-4284
▁tii	-4285
▁izo	-4286
▁Mali	-4287
phefum	-4288
papasha	-4289
▁ulwazi	-4290
▁ɑ	-4291
ụlọ	-4292
burg	-4293
lagbà	-4294
▁ọgbẹni	-4295
▁ṣèrìbọmi	-4296
kpɔ	-4297
▁iwadii	-4298
▁kutoka	-4299
Israyeli	-4300
▁Za	-4301
ójútó	-4302
▁hava	-4303
▁kini	-4304
Se	-4305
▁Wo	-4306
gbàá	-4307
▁197	-4308
▁asọ	-4309
▁mukuru	-4310
▁imo	-4311
▁kuli	-4312
▁wákàtí	-4313
▁igbakeji	-4314
rina	-4315
remba	-4316
danu	-4317
▁àánú	-4318
gbàgbọ	-4319
▁zvikuru	-4320
▁chifukwa	-4321
▁kumnatha	-4322
mbye	-4323
▁kpọ	-4324
tshin	-4325
▁ukwa	-4326
bunjalo	-4327
omu	-4328
▁alɔ	-4329
▁den	-4330
▁obe	-4331
genzi	-4332
▁ravo	-4333
lulekile	-4334
▁nezve	-4335
▁oludi	-4336
▁tàn	-4337
▁ẹrù	-4338
yanya	-4339
▁fọkàn	-4340
fanyika	-4341
úróṣinṣin	-4342
▁wephepha	-4343
goro	-4344
lára	-4345
hengo	-4346
▁ránṣẹ	-4347
lùkù	-4348
▁ṣee	-4349
onile	-4350
▁basi	-4351
thuthu	-4352
gì	-4353
hò	-4354
uka	-4355
▁kufanele	-4356
▁lọna	-4357
▁funfun	-4358
▁unyana	-4359
▁Ɛ	-4360
àmú	-4361
nyẹn	-4362
▁ìní	-4363
rican	-4364
▁site	-4365
▁títọ	-4366
▁ìgbẹ	-4367
thando	-4368
wenu	-4369
zvimbo	-4370
▁alábò	-4371
MDC	-4372
-5	-4373
tana	-4374
òfin	-4375
▁ọtí	-4376
ingoo	-4377
▁àgbàlagbà	-4378
tìgbà	-4379
wanga	-4380
▁kaYehova	-4381
▁wonxibelelwano	-4382
jii	-4383
miti	-4384
pàdé	-4385
èwé	-4386
▁iint	-4387
▁wazi	-4388
▁erékùṣù	-4389
▁Zi	-4390
bíye	-4391
▁Mar	-4392
▁bebaze	-4393
▁zokuphakela	-4394
▁nangobunjalo	-4395
redi	-4396
▁esen	-4397
▁kọkọ	-4398
▁gíríìkì	-4399
▁liphephandaba	-4400
▁eb	-4401
▁íń	-4402
bolo	-4403
Singoo	-4404
▁ounjẹ	-4405
résident	-4406
▁elipapasha	-4407
60	-4408
ring	-4409
▁university	-4410
▁lélẹ	-4411
qalazive	-4412
▁Anambra	-4413
Singooqalazive	-4414
iti	-4415
payá	-4416
▁múlẹ	-4417
lungisa	-4418
▁gbólóhùn	-4419
ogun	-4420
toto	-4421
▁air	-4422
▁uyo	-4423
▁èrè	-4424
tyala	-4425
▁batiri	-4426
rànwọ	-4427
vano	-4428
▁tóun	-4429
erusale	-4430
ali	-4431
▁ìgbésẹ	-4432
▁Nu	-4433
solo	-4434
ṣìṣe	-4435
▁sísọ	-4436
▁qu	-4437
hammed	-4438
hlanje	-4439
únibíni	-4440
▁ngokun	-4441
siyana	-4442
▁ìdíje	-4443
▁ezinye	-4444
19	-4445
▁Pe	-4446
luka	-4447
zile	-4448
▁àjá	-4449
▁ìbálòpọ	-4450
yuka	-4451
ction	-4452
mbeni	-4453
▁covid	-4454
▁amadoda	-4455
Kwa	-4456
gubo	-4457
▁kya	-4458
kelwa	-4459
▁pàṣẹ	-4460
▁sólómọ	-4461
kán	-4462
▁gh	-4463
▁194	-4464
thele	-4465
Ama	-4466
nná	-4467
▁ìyí	-4468
singa	-4469
▁ìyanu	-4470
▁ṣaaju	-4471
hiri	-4472
▁pre	-4473
▁isikhathi	-4474
▁alábòójútó	-4475
eze	-4476
puta	-4477
▁bára	-4478
hlangano	-4479
kora	-4480
▁Izi	-4481
▁ọjà	-4482
▁nilo	-4483
phatha	-4484
▁ezinta	-4485
▁zvinhu	-4486
bana	-4487
▁iyan	-4488
újẹ	-4489
diki	-4490
▁pri	-4491
▁èlò	-4492
▁iyẹn	-4493
▁kasar	-4494
▁àgbàyanu	-4495
keli	-4496
▁abanga	-4497
goli	-4498
▁bínú	-4499
▁maye	-4500
▁sama	-4501
▁wípé	-4502
khatha	-4503
▁jijini	-4504
▁umdlalo	-4505
▁ìṣípayá	-4506
▁ukumkani	-4507
ví	-4508
rírì	-4509
dínlọ	-4510
kinga	-4511
▁bayo	-4512
▁bábí	-4513
▁eno	-4514
▁mulẹ	-4515
▁ìrírí	-4516
kole	-4517
▁eti	-4518
▁ìrò	-4519
ibi	-4520
jabu	-4521
▁nha	-4522
▁car	-4523
▁abụọ	-4524
▁míṣọ	-4525
zelo	-4526
▁esan	-4527
▁bábílónì	-4528
dya	-4529
celo	-4530
▁kar	-4531
▁wata	-4532
▁icala	-4533
▁mchezo	-4534
▁wenyika	-4535
▁ላይ	-4536
▁chaka	-4537
▁3.	-4538
▁mbali	-4539
gos	-4540
sɛm	-4541
cimbi	-4542
▁ọpọlọ	-4543
yesi	-4544
zandla	-4545
Lo	-4546
reza	-4547
▁lokho	-4548
▁obodo	-4549
qonda	-4550
▁irun	-4551
▁yọrí	-4552
ata	-4553
▁moto	-4554
▁oselu	-4555
kka	-4556
pte	-4557
▁mè	-4558
tiki	-4559
vondo	-4560
▁ushi	-4561
▁eki	-4562
▁tẽn	-4563
▁jere	-4564
▁kuva	-4565
tshela	-4566
▁ìdáni	-4567
ɖu	-4568
ubu	-4569
nnárì	-4570
wàásù	-4571
lat	-4572
pto	-4573
pamọ	-4574
tìlẹ	-4575
yenza	-4576
▁ipele	-4577
Yuda	-4578
▁nka	-4579
▁kɔnɔ	-4580
▁párá	-4581
▁sámú	-4582
▁yokuba	-4583
▁ngomhla	-4584
asi	-4585
anyị	-4586
horo	-4587
kyerɛ	-4588
▁aṣe	-4589
▁naku	-4590
▁olúkú	-4591
፡፡	-4592
meli	-4593
linye	-4594
▁fetí	-4595
▁kuthiwa	-4596
▁wema	-4597
▁ekiti	-4598
▁imisebenzi	-4599
wanja	-4600
▁ithi	-4601
▁hivyo	-4602
▁Ch	-4603
▁athi	-4604
▁kuni	-4605
▁ngeke	-4606
▁ìbínú	-4607
Nga	-4608
▁ìfọ	-4609
lizwe	-4610
zange	-4611
▁Uthi	-4612
tle	-4613
▁àkàn	-4614
▁foonu	-4615
▁ezinga	-4616
dísè	-4617
hlwa	-4618
▁àjí	-4619
chaza	-4620
▁kwisi	-4621
▁sùúrù	-4622
▁àpapọ	-4623
ǹda	-4624
▁esithi	-4625
dera	-4626
▁gege	-4627
▁loun	-4628
▁oloo	-4629
national	-4630
▁29	-4631
▁ndo	-4632
shoko	-4633
▁májẹ	-4634
▁ìṣàkóso	-4635
▁párádísè	-4636
80	-4637
radi	-4638
wimi	-4639
▁ọla	-4640
tenge	-4641
▁muku	-4642
▁onífẹ	-4643
▁lorilẹede	-4644
▁lẹnu	-4645
dua	-4646
▁bar	-4647
gua	-4648
fisa	-4649
▁ologun	-4650
▁kakuhle	-4651
▁olúkúlùkù	-4652
rid	-4653
ishan	-4654
▁2016	-4655
jan	-4656
▁dò	-4657
razi	-4658
▁kuzi	-4659
mirira	-4660
wari	-4661
▁john	-4662
ishini	-4663
gɔn	-4664
leko	-4665
lwen	-4666
▁uno	-4667
khutha	-4668
▁wenza	-4669
▁wethu	-4670
▁par	-4671
kili	-4672
▁wom	-4673
▁ṣàì	-4674
▁anya	-4675
lindele	-4676
▁omkhulu	-4677
kre	-4678
▁yè	-4679
▁èlí	-4680
kwanisa	-4681
▁sé	-4682
tive	-4683
▁baza	-4684
▁ọchịchị	-4685
▁ngaphakathi	-4686
ẹgbẹ	-4687
▁ikẹ	-4688
▁mílíọ	-4689
▁jɔ	-4690
▁ngale	-4691
kwenzeka	-4692
lamu	-4693
▁indi	-4694
kuqala	-4695
simu	-4696
wabo	-4697
rom	-4698
▁ńkọ	-4699
▁ekun	-4700
▁asofin	-4701
khonzi	-4702
Ame	-4703
aga	-4704
mer	-4705
lack	-4706
tini	-4707
▁sílò	-4708
▁òṣèlú	-4709
▁kaloku	-4710
▁àjíǹde	-4711
).	-4712
óà	-4713
yazi	-4714
▁tha	-4715
phathi	-4716
▁maviri	-4717
ɲɛ	-4718
gcine	-4719
▁Q	-4720
ase	-4721
▁yə	-4722
dánù	-4723
yori	-4724
▁biri	-4725
▁ngoM	-4726
phansi	-4727
gẽ	-4728
úsù	-4729
chita	-4730
▁South	-4731
▁jìnnà	-4732
▁kwaku	-4733
▁ደ	-4734
▁okwe	-4735
jọpọ	-4736
tụtụ	-4737
▁Ndị	-4738
▁tútù	-4739
▁wani	-4740
▁wipe	-4741
▁leo	-4742
▁City	-4743
bingele	-4744
hù	-4745
khiqi	-4746
manje	-4747
yange	-4748
▁kéde	-4749
▁tẹle	-4750
▁yara	-4751
phambili	-4752
ny	-4753
OV	-4754
cro	-4755
lum	-4756
lahle	-4757
▁kórìíra	-4758
ṣò	-4759
▁àjálù	-4760
▁ṣègbọràn	-4761
▁deede	-4762
▁kopa	-4763
▁ibilẹ	-4764
darí	-4765
ker	-4766
▁atẹjade	-4767
▁bã	-4768
▁gò	-4769
▁iwadi	-4770
bea	-4771
▁táá	-4772
▁ሲ	-4773
loo	-4774
bora	-4775
▁daju	-4776
sisi	-4777
tora	-4778
▁tọkàn	-4779
shwe	-4780
isira	-4781
ẹnusọ	-4782
tshilo	-4783
▁indlu	-4784
rwe	-4785
ryo	-4786
thelo	-4787
zinga	-4788
▁yɛn	-4789
▁àìnípẹ	-4790
▁wor	-4791
▁kuza	-4792
dz	-4793
▁We	-4794
▁mna	-4795
bheli	-4796
ew	-4797
▁Igbo	-4798
▁yali	-4799
hutano	-4800
▁uA	-4801
▁laye	-4802
kelele	-4803
▁ambaye	-4804
▁adatero	-4805
shara	-4806
Bhayibhile	-4807
▁Nan	-4808
xenye	-4809
thenga	-4810
▁adari	-4811
kàwé	-4812
▁ifa	-4813
▁musa	-4814
▁apẹrẹ	-4815
▁ìrántí	-4816
ṣìírí	-4817
▁towe	-4818
▁idani	-4819
▁kepha	-4820
▁iwu	-4821
▁kwayo	-4822
kom	-4823
mma	-4824
▁élɔ	-4825
▁bani	-4826
▁kópa	-4827
▁ulio	-4828
▁atilẹyin	-4829
qinisekisa	-4830
liwe	-4831
▁Ubu	-4832
Kristu	-4833
▁olùṣọ	-4834
▁vamwe	-4835
▁ixesha	-4836
bato	-4837
▁ewé	-4838
zvare	-4839
▁mwana	-4840
▁ic	-4841
▁hizo	-4842
▁zika	-4843
mpahla	-4844
▁mún	-4845
▁ŋu	-4846
zuru	-4847
▁196	-4848
▁gye	-4849
▁gbára	-4850
uli	-4851
▁yẹra	-4852
▁minnu	-4853
har	-4854
▁lun	-4855
dium	-4856
▁ibùdó	-4857
▁idije	-4858
▁íjíbítì	-4859
▁oríṣiríṣi	-4860
abo	-4861
sísì	-4862
▁yìn	-4863
▁pane	-4864
▁nyin	-4865
▁òjò	-4866
sango	-4867
▁idan	-4868
▁yòókù	-4869
▁gúúsù	-4870
▁nọmba	-4871
▁ọjọgbọn	-4872
."	-4873
duku	-4874
laya	-4875
saka	-4876
▁Ali	-4877
▁fín	-4878
▁kika	-4879
▁ngobu	-4880
long	-4881
Kodwa	-4882
▁Waziri	-4883
▁oonyana	-4884
thethweni	-4885
PC	-4886
tlan	-4887
▁nóà	-4888
hloko	-4889
mpela	-4890
▁anfani	-4891
kɔn	-4892
▁sh	-4893
lokhu	-4894
▁ɖokpó	-4895
▁ilizwe	-4896
ṣé	-4897
wádìí	-4898
▁ẹnikẹni	-4899
▁òkúta	-4900
▁nabantu	-4901
▁Xa	-4902
tambi	-4903
▁agbá	-4904
▁àsìkò	-4905
oog	-4906
▁mko	-4907
▁àbú	-4908
mpilo	-4909
▁adajọ	-4910
njú	-4911
gust	-4912
óòpù	-4913
▁Oku	-4914
▁oyi	-4915
▁yona	-4916
xɔ	-4917
ንግ	-4918
hos	-4919
sua	-4920
hidi	-4921
▁nwere	-4922
phendula	-4923
IN	-4924
gye	-4925
duma	-4926
sety	-4927
▁okwa	-4928
▁tèmi	-4929
▁nezvi	-4930
aye	-4931
▁40	-4932
pẹtẹ	-4933
khula	-4934
tombi	-4935
▁uMnu	-4936
▁iṣakoso	-4937
▁bon	-4938
▁ète	-4939
míràn	-4940
▁ṣèrànwọ	-4941
gò	-4942
▁eziyi	-4943
alth	-4944
ọkan	-4945
socia	-4946
▁dokita	-4947
phefumlo	-4948
kk	-4949
ewé	-4950
▁fs	-4951
▁195	-4952
▁kple	-4953
▁láàrin	-4954
▁pàdánù	-4955
kea	-4956
buza	-4957
▁ìjẹ	-4958
▁musi	-4959
kanaka	-4960
▁entsha	-4961
gcin	-4962
▁afu	-4963
▁ዓ	-4964
ọrụ	-4965
gesi	-4966
▁Bur	-4967
▁uMa	-4968
isela	-4969
▁Te	-4970
▁cɛ	-4971
some	-4972
kweni	-4973
war	-4974
yún	-4975
bhala	-4976
▁sasa	-4977
▁yana	-4978
sangan	-4979
▁ambao	-4980
▁ojúṣe	-4981
▁wannan	-4982
oro	-4983
▁tóbi	-4984
▁àríwá	-4985
▁kutokana	-4986
▁!	-4987
takò	-4988
ting	-4989
▁ozi	-4990
▁nítò	-4991
▁sele	-4992
▁onyeisi	-4993
▁yɔ	-4994
gameko	-4995
zer	-4996
anza	-4997
ànújẹ	-4998
▁amesema	-4999
▁Naị	-5000
▁jáwọ	-5001
▁pápá	-5002
enza	-5003
luwe	-5004
▁ser	-5005
▁ìpọ	-5006
South	-5007
▁sori	-5008
biza	-5009
gore	-5010
benzi	-5011
shanu	-5012
▁lójo	-5013
▁dzaka	-5014
▁ntchito	-5015
▁alágbára	-5016
ati	-5017
▁fílí	-5018
▁jọba	-5019
▁olun	-5020
díò	-5021
usa	-5022
OVID	-5023
holi	-5024
stagram	-5025
▁ngakho	-5026
bale	-5027
dájọ	-5028
▁afo	-5029
▁kukhona	-5030
yun	-5031
cwan	-5032
▁The	-5033
▁vaudza	-5034
ɖa	-5035
fundisa	-5036
▁rẹpẹtẹ	-5037
fɛ	-5038
visi	-5039
ɔgɔn	-5040
xhobo	-5041
▁bako	-5042
ongozi	-5043
▁onibara	-5044
▁ìbànújẹ	-5045
▁uze	-5046
EN	-5047
▁ìpè	-5048
kunda	-5049
cation	-5050
▁orisi	-5051
ishe	-5052
▁oge	-5053
▁Chin	-5054
▁inúnibíni	-5055
▁:	-5056
fín	-5057
▁2,	-5058
▁síra	-5059
▁Buhari	-5060
ade	-5061
dinlogun	-5062
▁ezininzi	-5063
ric	-5064
▁òpó	-5065
▁ẹṣọ	-5066
dhora	-5067
▁umhlaba	-5068
▁ጥ	-5069
mla	-5070
▁yu	-5071
bata	-5072
biti	-5073
gosi	-5074
▁make	-5075
thombe	-5076
▁ngezin	-5077
inaa	-5078
▁kor	-5079
khetha	-5080
▁àbájáde	-5081
12	-5082
veni	-5083
▁Cup	-5084
▁2021	-5085
▁fidi	-5086
phantsi	-5087
lisha	-5088
▁lakini	-5089
enu	-5090
guzi	-5091
khwe	-5092
xhen	-5093
daràn	-5094
landa	-5095
▁ababe	-5096
America	-5097
tlha	-5098
xaki	-5099
▁ewe	-5100
lwandle	-5101
wọle	-5102
▁waka	-5103
▁sanwo	-5104
bozi	-5105
dali	-5106
yani	-5107
kinde	-5108
▁pata	-5109
ud	-5110
ese	-5111
▁He	-5112
bika	-5113
yoruba	-5114
▁ukusebenza	-5115
tenda	-5116
swe	-5117
▁sị	-5118
dili	-5119
▁15,	-5120
wenye	-5121
▁nchi	-5122
▁zili	-5123
sine	-5124
▁imọran	-5125
.2	-5126
▁ው	-5127
ence	-5128
▁ngemi	-5129
▁ef	-5130
▁it	-5131
wuli	-5132
▁kyerɛ	-5133
▁League	-5134
▁lójoojúmọ	-5135
▁60	-5136
▁nawo	-5137
gbegbe	-5138
▁ṣègbéyàwó	-5139
▁tə	-5140
▁éfé	-5141
▁ìjá	-5142
▁lílo	-5143
▁kwiin	-5144
▁amẹrika	-5145
ley	-5146
ṣepọ	-5147
▁bili	-5148
▁ojúewé	-5149
▁nokuthi	-5150
use	-5151
▁mm	-5152
lomo	-5153
▁dáníẹ	-5154
▁iwọde	-5155
▁ndiye	-5156
▁ambapo	-5157
▁0.	-5158
taba	-5159
▁etu	-5160
▁Rais	-5161
▁juzi	-5162
▁kìlọ	-5163
▁nazo	-5164
him	-5165
▁boya	-5166
▁daga	-5167
tswana	-5168
it	-5169
kwara	-5170
kholwa	-5171
tolewa	-5172
xhenxe	-5173
▁south	-5174
14	-5175
▁nsima	-5176
▁ileewe	-5177
▁pamoja	-5178
ɛm	-5179
lina	-5180
▁foju	-5181
▁Simba	-5182
ችን	-5183
nya	-5184
gozi	-5185
▁10.	-5186
▁kìkì	-5187
''	-5188
agba	-5189
▁bit	-5190
fíríkà	-5191
biso	-5192
tain	-5193
tare	-5194
▁news	-5195
▁sisi	-5196
▁sámúẹ	-5197
au	-5198
hara	-5199
seni	-5200
thathe	-5201
kula	-5202
▁ngase	-5203
▁oludije	-5204
▁jeremáyà	-5205
FA	-5206
▁id	-5207
ọdún	-5208
▁àrà	-5209
risti	-5210
tọkàn	-5211
zanga	-5212
▁2015	-5213
▁ìgbò	-5214
khethe	-5215
tevera	-5216
mocrati	-5217
sú	-5218
▁yɩ	-5219
keyi	-5220
ṣiṣẹ	-5221
▁ọpa	-5222
▁kala	-5223
▁masi	-5224
▁wayi	-5225
▁mbere	-5226
▁kòkòrò	-5227
▁alakoso	-5228
pilo	-5229
▁Umu	-5230
▁sunday	-5231
▁jàǹfààní	-5232
▁iimveliso	-5233
jja	-5234
▁èè	-5235
dise	-5236
túmọ	-5237
▁abdu	-5238
▁year	-5239
oko	-5240
ywe	-5241
wene	-5242
▁gún	-5243
▁hwɛ	-5244
▁àyè	-5245
jirịa	-5246
▁mokonzi	-5247
▁abafundi	-5248
cinga	-5249
kelwe	-5250
pital	-5251
▁nanga	-5252
▁ìrònú	-5253
▁agbẹjọ	-5254
▁kwamba	-5255
▁jẹun	-5256
▁nísinsìnyí	-5257
loba	-5258
vuma	-5259
▁ola	-5260
▁ìdì	-5261
▁tori	-5262
fanira	-5263
▁kunjalo	-5264
sociation	-5265
በር	-5266
▁aɖe	-5267
▁zinto	-5268
▁iNkosi	-5269
▁makinde	-5270
gd	-5271
sɔ	-5272
▁5.	-5273
pinda	-5274
▁kuji	-5275
▁ngazo	-5276
▁nnipa	-5277
deɛ	-5278
qiniso	-5279
gr	-5280
▁Au	-5281
mari	-5282
▁ìjí	-5283
▁mèsáyà	-5284
▁uB	-5285
▁ṣàyẹ	-5286
íjíríà	-5287
▁afikun	-5288
▁kanjani	-5289
▁cu	-5290
chezaji	-5291
intanethi	-5292
ajo	-5293
ọla	-5294
banzi	-5295
▁tọkàntọkàn	-5296
▁ድ	-5297
kcu	-5298
gile	-5299
ters	-5300
▁pipo	-5301
ɖo	-5302
mos	-5303
bila	-5304
pele	-5305
ንድ	-5306
▁lù	-5307
▁Nda	-5308
faani	-5309
kànlá	-5310
rypto	-5311
tali	-5312
chool	-5313
finro	-5314
cd	-5315
wì	-5316
dura	-5317
kura	-5318
tùnú	-5319
gamba	-5320
▁nawe	-5321
▁alipo	-5322
▁igbimo	-5323
▁mdlalo	-5324
▁ìwòsàn	-5325
sili	-5326
yaku	-5327
▁afe	-5328
▁kpodo	-5329
▁àṣìṣe	-5330
▁ǎ	-5331
lara	-5332
▁keje	-5333
▁yàrá	-5334
shyi	-5335
▁loni	-5336
▁kinni	-5337
▁Ad	-5338
ishin	-5339
▁tako	-5340
síwájú	-5341
qeqeshi	-5342
▁Kwathi	-5343
cer	-5344
láàá	-5345
turu	-5346
▁nyaka	-5347
▁habari	-5348
garo	-5349
mula	-5350
qond	-5351
▁faran	-5352
ky	-5353
buye	-5354
▁biara	-5355
▁oloye	-5356
▁VaT	-5357
▁ona	-5358
▁ezifana	-5359
▁utshilo	-5360
ada	-5361
ffi	-5362
lasi	-5363
▁lezi	-5364
▁ẹyin	-5365
fanirwa	-5366
▁Abantu	-5367
▁látìgbà	-5368
Co	-5369
díà	-5370
▁Con	-5371
zathu	-5372
▁agbofinro	-5373
nɔ	-5374
bar	-5375
gbèé	-5376
leng	-5377
siya	-5378
▁dik	-5379
▁kaka	-5380
▁kwam	-5381
▁lojo	-5382
▁ìgbàlà	-5383
baba	-5384
muka	-5385
▁nem	-5386
lapho	-5387
zulwini	-5388
-7	-5389
mọn	-5390
▁koda	-5391
tẹlẹ	-5392
wili	-5393
▁bro	-5394
▁mini	-5395
▁kpódó	-5396
landelayo	-5397
isẹ	-5398
lix	-5399
▁aza	-5400
▁mvu	-5401
dzero	-5402
▁sara	-5403
▁yálà	-5404
▁‚	-5405
geze	-5406
mbia	-5407
site	-5408
sítì	-5409
▁pàtó	-5410
Yiputa	-5411
▁up	-5412
lélọ	-5413
▁kuyi	-5414
▁alagbara	-5415
gg	-5416
geli	-5417
profe	-5418
▁soro	-5419
▁miliọnu	-5420
basa	-5421
limu	-5422
áàmù	-5423
▁ilọ	-5424
▁ree	-5425
phone	-5426
▁aben	-5427
▁bụrụ	-5428
▁màríà	-5429
▁chirwere	-5430
IV	-5431
koko	-5432
▁ṣáá	-5433
▁lòdì	-5434
▁amazwi	-5435
bano	-5436
hosva	-5437
▁cikin	-5438
▁facebook	-5439
dile	-5440
▁you	-5441
kanya	-5442
ranṣẹ	-5443
ezi	-5444
rifa	-5445
▁nea	-5446
▁korona	-5447
rian	-5448
rson	-5449
▁àdà	-5450
▁weku	-5451
▁bakwa	-5452
▁níyànjú	-5453
▁st	-5454
funi	-5455
▁masu	-5456
pt	-5457
▁የአ	-5458
piri	-5459
sile	-5460
khale	-5461
▁iing	-5462
▁àpèjúwe	-5463
▁Naịjirịa	-5464
▁Go	-5465
▁Mwa	-5466
▁ini	-5467
kacha	-5468
gqa	-5469
▁éfà	-5470
▁ọbụ	-5471
▁kufa	-5472
15	-5473
▁Tu	-5474
▁uT	-5475
▁bló	-5476
▁àbúrò	-5477
▁àkànṣe	-5478
▁vai	-5479
inubu	-5480
▁ezahlukene	-5481
ast	-5482
nolo	-5483
ìyàn	-5484
▁home	-5485
▁bethu	-5486
▁èròjà	-5487
▁kungen	-5488
▁vakawanda	-5489
Zi	-5490
nin	-5491
tlo	-5492
ìnì	-5493
▁dia	-5494
▁sibẹ	-5495
lélógún	-5496
red	-5497
vhu	-5498
▁Ti	-5499
▁opin	-5500
gambye	-5501
▁kwabantu	-5502
eke	-5503
▁cé	-5504
miso	-5505
▁Par	-5506
▁xwé	-5507
▁sebe	-5508
▁zvichi	-5509
▁Po	-5510
▁uD	-5511
fisi	-5512
▁tẹnu	-5513
▁ìfara	-5514
▁eyikeyi	-5515
-6	-5516
eb	-5517
mbwa	-5518
▁afɔ	-5519
▁buka	-5520
qaleni	-5521
▁baara	-5522
▁okuba	-5523
bali	-5524
tswa	-5525
yure	-5526
▁men	-5527
▁ven	-5528
▁ère	-5529
▁bari	-5530
▁from	-5531
▁béèyàn	-5532
▁ezintathu	-5533
ውን	-5534
▁kẽ	-5535
zoku	-5536
▁gara	-5537
▁waku	-5538
dzimai	-5539
▁kwara	-5540
▁million	-5541
▁áfíríkà	-5542
▁europe	-5543
▁kpé	-5544
▁ukwazi	-5545
ṣú	-5546
seph	-5547
tera	-5548
▁beku	-5549
▁òrìṣà	-5550
huma	-5551
▁gọọ	-5552
hlungu	-5553
lawulo	-5554
▁kwemi	-5555
▁ìkẹyìn	-5556
zera	-5557
▁àlá	-5558
▁lona	-5559
▁kwezin	-5560
ach	-5561
▁idajọ	-5562
▁àsọyé	-5563
▁omunye	-5564
▁àìmọye	-5565
anì	-5566
ide	-5567
gali	-5568
hili	-5569
toni	-5570
korwa	-5571
▁ìyàtọ	-5572
lus	-5573
▁ambayo	-5574
ṣan	-5575
mara	-5576
▁ahọ	-5577
▁hari	-5578
▁koju	-5579
▁Mumwe	-5580
lelogun	-5581
▁mkoani	-5582
gra	-5583
▁gaə	-5584
tenga	-5585
gbogbo	-5586
zalwana	-5587
▁32	-5588
▁7.	-5589
▁sp	-5590
kada	-5591
mera	-5592
▁ado	-5593
▁ajé	-5594
bonga	-5595
▁síyẹn	-5596
hau	-5597
▁gbọn	-5598
thombo	-5599
ges	-5600
iki	-5601
td	-5602
▁3,	-5603
▁awakọ	-5604
▁ibara	-5605
▁nyinaa	-5606
khulumela	-5607
▁Obi	-5608
▁hwa	-5609
▁mmo	-5610
manso	-5611
▁naVa	-5612
▁post	-5613
▁apoti	-5614
▁ṣàpèjúwe	-5615
▁nwe	-5616
tweni	-5617
▁mgbe	-5618
▁amabili	-5619
ANC	-5620
ọjọ	-5621
▁kazi	-5622
buyise	-5623
▁ọmọde	-5624
▁phansi	-5625
▁mbalimbali	-5626
gbi	-5627
futa	-5628
▁tobi	-5629
▁hazvo	-5630
▁yòówù	-5631
▁iwosan	-5632
▁ojúlówó	-5633
razil	-5634
▁pere	-5635
▁ìtùnú	-5636
▁Sun	-5637
▁àdánwò	-5638
by	-5639
yd	-5640
ahụ	-5641
▁Mɛ	-5642
soni	-5643
▁anyị	-5644
▁yaye	-5645
▁Muzvare	-5646
▁Ilé	-5647
▁kùn	-5648
▁sia	-5649
▁ibudo	-5650
dlwen	-5651
khuba	-5652
▁isalẹ	-5653
▁iṣowo	-5654
▁Ab	-5655
▁ogo	-5656
dinlọ	-5657
ondon	-5658
▁kuse	-5659
▁níṣìírí	-5660
▁eneminyaka	-5661
tis	-5662
tánẹ	-5663
▁kga	-5664
kisha	-5665
▁faili	-5666
▁osise	-5667
fanekiso	-5668
▁daradara	-5669
zimu	-5670
▁tete	-5671
▁tọrọ	-5672
bingeleli	-5673
EL	-5674
mii	-5675
▁láyè	-5676
▁ndetse	-5677
▁isandla	-5678
▁US	-5679
bazi	-5680
ojii	-5681
risun	-5682
tshwa	-5683
▁kuYehova	-5684
gal	-5685
▁rè	-5686
juwe	-5687
yari	-5688
▁eka	-5689
▁eso	-5690
▁igbó	-5691
thembe	-5692
▁kweli	-5693
▁mabasa	-5694
▁ngaphezu	-5695
ónì	-5696
kano	-5697
▁bantu	-5698
rie	-5699
▁nŭ	-5700
▁th	-5701
lene	-5702
▁múnú	-5703
▁riri	-5704
▁Uganda	-5705
▁munyaya	-5706
▁bakaSirayeli	-5707
▁xá	-5708
misele	-5709
bs	-5710
my	-5711
las	-5712
▁Kin	-5713
▁ato	-5714
thiwe	-5715
▁bama	-5716
▁ezali	-5717
▁onítọ	-5718
bangela	-5719
-20	-5720
tuo	-5721
▁iN	-5722
orld	-5723
▁mwe	-5724
▁oniru	-5725
▁izingane	-5726
▁ት	-5727
nyi	-5728
▁አስ	-5729
▁kgo	-5730
▁kaadi	-5731
▁aláìní	-5732
▁ìgbàanì	-5733
coin	-5734
visa	-5735
khani	-5736
▁matatu	-5737
pesa	-5738
wano	-5739
▁igbẹ	-5740
▁africa	-5741
shen	-5742
▁Stadium	-5743
des	-5744
dolo	-5745
▁500	-5746
▁Mme	-5747
funga	-5748
▁dẹni	-5749
▁fìdí	-5750
▁ndin	-5751
▁2019.	-5752
▁amene	-5753
▁miaka	-5754
▁state	-5755
▁sẹyin	-5756
▁tele	-5757
▁ninga	-5758
▁ngabantu	-5759
▁yokuqala	-5760
pɛ	-5761
▁bitu	-5762
▁abala	-5763
▁world	-5764
▁ìyípadà	-5765
ɛma	-5766
▁òò	-5767
yemi	-5768
▁uta	-5769
▁àgbẹ	-5770
▁ìkàn	-5771
▁ẹkun	-5772
▁íńtánẹ	-5773
በት	-5774
Zulu	-5775
▁iro	-5776
▁yami	-5777
▁yobu	-5778
▁nceda	-5779
▁omnye	-5780
▁méjìlá	-5781
▁bee	-5782
▁Vano	-5783
▁bata	-5784
ori	-5785
▁Je	-5786
mati	-5787
▁nee	-5788
▁yee	-5789
▁kude	-5790
xhumana	-5791
▁tinubu	-5792
-8	-5793
sy	-5794
daka	-5795
yale	-5796
▁Onye	-5797
▁kabi	-5798
▁nina	-5799
kaàwọn	-5800
▁tlhalo	-5801
▁agbẹnusọ	-5802
culo	-5803
hane	-5804
pere	-5805
▁abú	-5806
▁yao	-5807
qhuba	-5808
▁nafa	-5809
shanda	-5810
▁ngati	-5811
▁niyẹn	-5812
▁ithuba	-5813
▁jámánì	-5814
jia	-5815
dulo	-5816
▁Burk	-5817
org	-5818
anzi	-5819
lisayo	-5820
▁kandi	-5821
▁ìràpadà	-5822
net	-5823
yinto	-5824
▁yayi	-5825
▁kaThixo	-5826
igi	-5827
▁On	-5828
guna	-5829
▁ibì	-5830
phile	-5831
▁ngan	-5832
▁pamọ	-5833
▁ìrora	-5834
▁nhengo	-5835
▁nítòsí	-5836
fon	-5837
tel	-5838
roup	-5839
▁ẹja	-5840
mbere	-5841
▁sini	-5842
▁wasi	-5843
mibuzo	-5844
▁windo	-5845
▁crypto	-5846
▁gbígbé	-5847
▁ìgboyà	-5848
xó	-5849
▁Dk	-5850
▁ela	-5851
▁rus	-5852
▁zibe	-5853
▁aarun	-5854
▁éfésù	-5855
▁ìṣekúṣe	-5856
▁bɛɛ	-5857
▁rúbọ	-5858
cinane	-5859
▁COVID	-5860
óònù	-5861
dzera	-5862
▁guru	-5863
▁line	-5864
▁more	-5865
▁ẹlẹgbẹ	-5866
▁8,	-5867
beli	-5868
yene	-5869
▁nko	-5870
▁ìfi	-5871
▁ɛbɛ	-5872
thumela	-5873
thabatha	-5874
ዋል።	-5875
▁eyen	-5876
▁mama	-5877
▁daadaa	-5878
▁dibo	-5879
▁kikun	-5880
▁ultra	-5881
▁àtàtà	-5882
gã	-5883
buda	-5884
▁Nor	-5885
ments	-5886
▁dari	-5887
▁zaba	-5888
▁Serikali	-5889
40	-5890
Aba	-5891
▁She	-5892
▁engi	-5893
▁ọgba	-5894
▁esandleni	-5895
Bo	-5896
cie	-5897
mane	-5898
▁byo	-5899
▁lohun	-5900
▁àlejò	-5901
fes	-5902
▁mw	-5903
kiwa	-5904
mpawu	-5905
▁ibọn	-5906
▁dzino	-5907
▁lóhùn	-5908
▁trans	-5909
tsin	-5910
▁hadi	-5911
▁vave	-5912
úróòpù	-5913
▁apapo	-5914
▁ubomi	-5915
ruzhinji	-5916
sanganisira	-5917
▁33	-5918
ance	-5919
tsva	-5920
▁Nai	-5921
gbodò	-5922
gunya	-5923
▁fihan	-5924
▁reluwe	-5925
erusalem	-5926
▁alaafia	-5927
▁lagbegbe	-5928
▁eG	-5929
disi	-5930
▁lya	-5931
▁andi	-5932
▁gihe	-5933
▁izvo	-5934
▁kano	-5935
fanayo	-5936
hlophe	-5937
tholakala	-5938
RA	-5939
lie	-5940
▁mb	-5941
▁idà	-5942
▁uru	-5943
▁wil	-5944
thula	-5945
▁leli	-5946
▁paṣẹ	-5947
▁laipẹ	-5948
khangela	-5949
susu	-5950
▁Paul	-5951
▁kula	-5952
▁mọto	-5953
▁ẹṣin	-5954
ser	-5955
sono	-5956
▁ajẹ	-5957
▁ɛwɔ	-5958
▁akwụ	-5959
▁endi	-5960
▁wọnú	-5961
▁vacha	-5962
200	-5963
▁የመ	-5964
khono	-5965
onald	-5966
▁Kenya	-5967
fundisi	-5968
▁ẹgbẹẹgbẹ	-5969
jɔ	-5970
fra	-5971
fite	-5972
▁12.	-5973
▁hicho	-5974
▁zaidi	-5975
landeli	-5976
▁mojuto	-5977
▁alumini	-5978
khundleni	-5979
▁6.	-5980
kono	-5981
sola	-5982
▁lam	-5983
▁odo	-5984
▁ẹbi	-5985
dlula	-5986
▁samu	-5987
▁ikede	-5988
▁kanga	-5989
▁nídìí	-5990
▁ushiye	-5991
▁ngonyaka	-5992
hama	-5993
tina	-5994
zeni	-5995
ingwa	-5996
▁Vati	-5997
lógójì	-5998
nɛ	-5999
▁Mun	-6000
▁ste	-6001
khasi	-6002
▁wɔde	-6003
▁kọọkan	-6004
Yerusalem	-6005
sebenzisi	-6006
▁app	-6007
▁oti	-6008
▁ìdẹ	-6009
▁fàyè	-6010
▁lili	-6011
▁ning	-6012
▁pachi	-6013
Jo	-6014
debe	-6015
keka	-6016
▁elu	-6017
bọchị	-6018
▁komanso	-6019
▁poliisi	-6020
down	-6021
▁azo	-6022
tomba	-6023
▁neng	-6024
▁tlho	-6025
▁ɔman	-6026
bulawa	-6027
lawula	-6028
▁sisan	-6029
▁ìbáwí	-6030
▁kuleli	-6031
▁endlwini	-6032
▁imidlalo	-6033
Mi	-6034
velo	-6035
ziki	-6036
▁tso	-6037
▁nwọn	-6038
▁dwuma	-6039
▁kọrin	-6040
sebenzini	-6041
MA	-6042
ãa	-6043
lán	-6044
uya	-6045
wenza	-6046
▁fifi	-6047
▁gumi	-6048
lekile	-6049
cabanga	-6050
▁oloogbe	-6051
▁kusukela	-6052
pana	-6053
▁oru	-6054
láàádọ	-6055
zinisi	-6056
▁aláyọ	-6057
▁mingi	-6058
▁oludari	-6059
jèjì	-6060
jinlẹ	-6061
▁raka	-6062
ebe	-6063
ọlu	-6064
▁ìy	-6065
hloni	-6066
▁sára	-6067
▁titẹ	-6068
▁ọbụla	-6069
wesifazane	-6070
blic	-6071
inge	-6072
▁ìta	-6073
▁òru	-6074
tshenziswa	-6075
▁Ɖ	-6076
und	-6077
doma	-6078
bhadha	-6079
▁Yanga	-6080
▁et	-6081
▁xe	-6082
▁fsx	-6083
▁rwa	-6084
benga	-6085
mnyama	-6086
▁ayika	-6087
▁nyuma	-6088
▁mọrírì	-6089
▁kara	-6090
▁yari	-6091
▁ipese	-6092
ለም	-6093
▁zĩ	-6094
mero	-6095
mier	-6096
▁ane	-6097
▁tok	-6098
▁hw	-6099
tala	-6100
líìkì	-6101
▁nira	-6102
▁yezi	-6103
▁8.	-6104
kìlọ	-6105
sapá	-6106
▁ọtụtụ	-6107
▁kufanya	-6108
▁uweojii	-6109
▁iranlọwọ	-6110
11	-6111
yena	-6112
▁emu	-6113
sonto	-6114
▁ìrànwọ	-6115
rles	-6116
So	-6117
ስት	-6118
òrò	-6119
▁uZ	-6120
list	-6121
▁Zvi	-6122
▁pla	-6123
tshane	-6124
tshele	-6125
▁abúlé	-6126
▁ariwo	-6127
bhedlela	-6128
▁orisirisi	-6129
▁yó	-6130
gisa	-6131
jiji	-6132
▁may	-6133
dinge	-6134
▁Cham	-6135
▁pẹpẹ	-6136
▁vane	-6137
▁janduku	-6138
oju	-6139
tche	-6140
yina	-6141
yẹwo	-6142
▁ite	-6143
▁gbara	-6144
lungile	-6145
buso	-6146
zelwe	-6147
fiyèsí	-6148
▁ገ	-6149
▁Du	-6150
▁uP	-6151
▁በተ	-6152
▁sam	-6153
mbulu	-6154
▁mọkan	-6155
▁webtal	-6156
▁nezinye	-6157
▁onígbàgbọ	-6158
né	-6159
Ngi	-6160
pese	-6161
chine	-6162
▁ọgbọn	-6163
ihu	-6164
▁abá	-6165
jìnlẹ	-6166
▁kpán	-6167
▁mimọ	-6168
▁pama	-6169
▁sinmi	-6170
▁yinto	-6171
engi	-6172
tímọ	-6173
▁ẹtọ	-6174
darika	-6175
▁abayi	-6176
▁ìgbòkè	-6177
▁mutungamiri	-6178
pọn	-6179
dano	-6180
ders	-6181
enga	-6182
▁ilo	-6183
hange	-6184
▁akun	-6185
▁bala	-6186
▁inayo	-6187
▁kusvika	-6188
▁tsh	-6189
▁níní	-6190
▁tile	-6191
▁price	-6192
kubu	-6193
diswa	-6194
yaniso	-6195
phumela	-6196
khombisa	-6197
▁oníwàásù	-6198
La	-6199
zara	-6200
▁aké	-6201
▁lókè	-6202
▁chikwata	-6203
▁uR	-6204
▁lula	-6205
orge	-6206
▁ego	-6207
▁ṣeré	-6208
yobozi	-6209
▁rọrun	-6210
▁sòótọ	-6211
endelea	-6212
mthetho	-6213
▁lagbara	-6214
▁polongo	-6215
▁ukufumana	-6216
ኢት	-6217
eno	-6218
yna	-6219
phun	-6220
stra	-6221
▁aze	-6222
zalaki	-6223
▁fikun	-6224
▁kwanza	-6225
▁ìparun	-6226
ihi	-6227
uza	-6228
jibu	-6229
kplɔ	-6230
moni	-6231
wula	-6232
▁14.	-6233
chuku	-6234
funde	-6235
▁ingane	-6236
bai	-6237
▁Ar	-6238
▁Fé	-6239
leki	-6240
▁non	-6241
▁por	-6242
▁zao	-6243
hlela	-6244
▁kamp	-6245
▁àgbé	-6246
phethe	-6247
▁misala	-6248
▁nneɛma	-6249
▁kubantu	-6250
▁adúróṣinṣin	-6251
Li	-6252
▁ዘ	-6253
khwa	-6254
▁all	-6255
▁can	-6256
▁fan	-6257
zalwa	-6258
▁city	-6259
▁moja	-6260
▁naan	-6261
▁sípò	-6262
▁haram	-6263
▁thina	-6264
▁ìsapá	-6265
▁nigbati	-6266
▁phezulu	-6267
▁ìgbòkègbodò	-6268
gomo	-6269
▁jàǹ	-6270
teeka	-6271
▁bila	-6272
▁ariko	-6273
▁kaNkulunkulu	-6274
gunja	-6275
wòrán	-6276
▁Mala	-6277
▁fìfẹ	-6278
▁ibamu	-6279
▁lokuqala	-6280
ak	-6281
faa	-6282
ánu	-6283
▁vɔ	-6284
zenza	-6285
▁inec	-6286
▁siri	-6287
▁tech	-6288
▁zawo	-6289
▁oriṣi	-6290
ɔnu	-6291
fojú	-6292
rano	-6293
▁Union	-6294
dlalweni	-6295
lekileyo	-6296
▁yokuthi	-6297
ኢትዮ	-6298
▁5,	-6299
culi	-6300
▁zam	-6301
pfumi	-6302
thengi	-6303
▁ngawo	-6304
efs	-6305
mia	-6306
pín	-6307
meko	-6308
xolo	-6309
▁kíá	-6310
▁VaMu	-6311
▁ọrun	-6312
▁eleto	-6313
▁hwenu	-6314
▁láìka	-6315
▁niile	-6316
▁ìtara	-6317
ìwà	-6318
▁''	-6319
diyo	-6320
gban	-6321
pani	-6322
seku	-6323
sise	-6324
▁die	-6325
ቸዉ	-6326
▁ṣò	-6327
▁300	-6328
▁meta	-6329
▁zvakanaka	-6330
fanelekileyo	-6331
tín	-6332
okwu	-6333
tauri	-6334
▁fasiti	-6335
▁ukusebenzisa	-6336
Um	-6337
Man	-6338
Zanu	-6339
▁mag	-6340
bizwa	-6341
▁mane	-6342
▁muko	-6343
change	-6344
▁ikiwa	-6345
▁kuqala	-6346
▁ìjìnlẹ	-6347
àyè	-6348
bhin	-6349
▁èkó	-6350
▁kuhu	-6351
golide	-6352
ratidza	-6353
lúù	-6354
▁impa	-6355
▁akẹkọọ	-6356
▁ìrìbọmi	-6357
car	-6358
▁mɔgɔ	-6359
▁Taifa	-6360
▁salaye	-6361
▁aluminiomu	-6362
lụ	-6363
▁Shi	-6364
▁Magu	-6365
▁kasi	-6366
▁yawo	-6367
▁q	-6368
▁kə	-6369
hatu	-6370
yara	-6371
shiya	-6372
▁bali	-6373
▁jìyà	-6374
▁nako	-6375
melelo	-6376
▁elobi	-6377
▁umoya	-6378
▁walio	-6379
▁kanjalo	-6380
anyi	-6381
ctory	-6382
▁kátó	-6383
▁lina	-6384
▁bayan	-6385
▁nabanye	-6386
dom	-6387
ghts	-6388
wulo	-6389
▁Wil	-6390
▁ono	-6391
dlovu	-6392
dógún	-6393
▁tímọ	-6394
▁nekuti	-6395
▁amabini	-6396
ṣán	-6397
▁Ji	-6398
zuva	-6399
kunge	-6400
▁arìn	-6401
▁lépa	-6402
kùnkùn	-6403
▁uyise	-6404
ors	-6405
ros	-6406
▁Ho	-6407
vice	-6408
woke	-6409
hannes	-6410
sipala	-6411
▁pariwo	-6412
gn	-6413
▁Ó	-6414
▁VaC	-6415
,.	-6416
uko	-6417
▁ለማ	-6418
▁Ser	-6419
mbula	-6420
▁jùlọ	-6421
▁omwe	-6422
anuary	-6423
▁Félix	-6424
▁olóró	-6425
▁wenze	-6426
▁ọdaran	-6427
▁yúróòpù	-6428
kaa	-6429
tseng	-6430
▁VaMa	-6431
▁mala	-6432
cember	-6433
fungwa	-6434
▁amathathu	-6435
cle	-6436
▁hí	-6437
mɔgɔ	-6438
wara	-6439
▁kátólíìkì	-6440
zuri	-6441
sáàmù	-6442
▁gbin	-6443
▁oogun	-6444
▁ìbámu	-6445
▁iiyure	-6446
Ja	-6447
▁Bar	-6448
▁ìlọ	-6449
▁ọpẹ	-6450
▁egwu	-6451
▁nìyí	-6452
▁wulẹ	-6453
▁ìgbọ	-6454
▁kọkan	-6455
▁nathi	-6456
▁sugbon	-6457
fè	-6458
▁ቀ	-6459
nis	-6460
▁በመ	-6461
bulu	-6462
▁pen	-6463
láàsì	-6464
oogle	-6465
▁jesu	-6466
kundleni	-6467
phumelela	-6468
gunaphakade	-6469
AC	-6470
pú	-6471
▁Hi	-6472
kane	-6473
ries	-6474
▁Imi	-6475
rence	-6476
▁fura	-6477
hlweni	-6478
▁ukuyi	-6479
▁gbagbe	-6480
kcukacha	-6481
▁Association	-6482
▁Ụ	-6483
▁ur	-6484
▁mako	-6485
▁dhidi	-6486
▁lwakho	-6487
▁ultrasoni	-6488
uti	-6489
▁sã	-6490
dira	-6491
ኢትዮጵ	-6492
▁Chu	-6493
▁Maa	-6494
▁mku	-6495
▁ìhà	-6496
▁liye	-6497
▁ushin	-6498
▁uDavide	-6499
gca	-6500
onto	-6501
quka	-6502
▁iho	-6503
▁owu	-6504
▁tóó	-6505
lando	-6506
láàyè	-6507
▁ange	-6508
▁mẹfa	-6509
▁ìyìn	-6510
▁dzavo	-6511
▁gbigbe	-6512
hulumeni	-6513
py	-6514
pon	-6515
▁Pol	-6516
ranga	-6517
▁wale	-6518
pụtara	-6519
▁cyane	-6520
▁ìkànnì	-6521
▁pó	-6522
kari	-6523
wárí	-6524
▁ole	-6525
khiwo	-6526
ኢትዮጵያ	-6527
gungun	-6528
▁rìnrìn	-6529
▁aládùúgbò	-6530
webhusayithi	-6531
jya	-6532
uto	-6533
▁በአ	-6534
bene	-6535
roid	-6536
▁gùn	-6537
hluko	-6538
▁Kati	-6539
▁sójú	-6540
▁uH	-6541
▁rii	-6542
▁meku	-6543
▁aṣojú	-6544
PS	-6545
TH	-6546
rw	-6547
rã	-6548
akwụ	-6549
▁Shu	-6550
▁eban	-6551
ctober	-6552
▁ilizwi	-6553
▁lwakhe	-6554
misebenzi	-6555
-9	-6556
cula	-6557
▁mumu	-6558
ue	-6559
ƒo	-6560
▁dŏ	-6561
jádò	-6562
▁asu	-6563
▁àyẹ	-6564
kunzi	-6565
wonye	-6566
▁anaa	-6567
▁muda	-6568
▁ijamba	-6569
▁ph	-6570
tango	-6571
▁kari	-6572
▁China	-6573
▁chiri	-6574
▁irinṣẹ	-6575
ènì	-6576
jana	-6577
keke	-6578
phosa	-6579
▁jákè	-6580
▁anoti	-6581
▁njani	-6582
▁nukɔn	-6583
ptember	-6584
▁gbógun	-6585
▁kuitira	-6586
gar	-6587
ọdụ	-6588
kasa	-6589
siri	-6590
soft	-6591
ghara	-6592
thawi	-6593
▁bamu	-6594
▁eri	-6595
▁zomwe	-6596
ves	-6597
mónì	-6598
sindo	-6599
▁pípa	-6600
▁reku	-6601
▁sáyẹ	-6602
▁kuitwa	-6603
▁nekuda	-6604
hulumente	-6605
24	-6606
ẹsẹ	-6607
kálẹ	-6608
sino	-6609
yuma	-6610
▁Che	-6611
▁gbáà	-6612
▁amalungu	-6613
▁emsebenzini	-6614
gco	-6615
▁ìdùn	-6616
▁nafasi	-6617
▁afurasi	-6618
▁nechirwere	-6619
kino	-6620
▁gwe	-6621
▁usu	-6622
▁àlà	-6623
kholo	-6624
tongo	-6625
▁azɔn	-6626
▁kìló	-6627
▁okeere	-6628
16	-6629
▁13.	-6630
▁oma	-6631
▁ẹbí	-6632
ramba	-6633
▁imwe	-6634
▁sare	-6635
▁yʋʋm	-6636
▁ìsin	-6637
▁máàkù	-6638
▁ìkìlọ	-6639
▁4,	-6640
unga	-6641
linga	-6642
phathe	-6643
▁àdúgbò	-6644
▁kodzero	-6645
SI	-6646
kuo	-6647
rúgbó	-6648
▁nalo	-6649
kurudzira	-6650
▁Ò	-6651
▁xò	-6652
fake	-6653
gboro	-6654
▁bebe	-6655
▁sáré	-6656
▁wayen	-6657
▁èlíjà	-6658
▁kunyange	-6659
labu	-6660
▁15.	-6661
▁owe	-6662
▁òṣù	-6663
sanii	-6664
mbalwa	-6665
▁idanwo	-6666
▁webtalk	-6667
aa	-6668
▁ሁ	-6669
yewo	-6670
▁kín	-6671
gwebo	-6672
tumia	-6673
▁niyi	-6674
▁chino	-6675
▁nehurumende	-6676
▁mmi	-6677
▁pano	-6678
▁pìwà	-6679
▁sibe	-6680
khonza	-6681
▁sóhun	-6682
▁ìdùnnú	-6683
▁ok	-6684
▁zɔ	-6685
fuli	-6686
golo	-6687
sasa	-6688
▁nímọ	-6689
▁sabo	-6690
yanzvi	-6691
▁abẹrẹ	-6692
▁media	-6693
sifazane	-6694
▁faransé	-6695
èké	-6696
maka	-6697
tswe	-6698
▁byɔ	-6699
▁wao	-6700
▁aláwọ	-6701
▁aṣoju	-6702
tauriri	-6703
▁président	-6704
mna	-6705
arri	-6706
hamb	-6707
lesi	-6708
mítà	-6709
▁rya	-6710
▁ẹru	-6711
▁lèyí	-6712
▁Nkosi	-6713
futshane	-6714
moo	-6715
firi	-6716
kiswa	-6717
▁Cent	-6718
▁bezi	-6719
▁kusi	-6720
▁poin	-6721
▁with	-6722
sungwa	-6723
▁akọsilẹ	-6724
ṣúà	-6725
▁Is	-6726
enal	-6727
▁akɔ	-6728
▁aṣi	-6729
▁mímú	-6730
▁nini	-6731
▁wúrà	-6732
▁manje	-6733
▁nakwa	-6734
▁ààrùn	-6735
pheleleyo	-6736
setyenziswa	-6737
ON	-6738
Yesu	-6739
▁niṣe	-6740
▁ogójì	-6741
hlangana	-6742
chun	-6743
lopo	-6744
▁kuchi	-6745
ǹsì	-6746
-24.	-6747
bhali	-6748
▁orisun	-6749
paramende	-6750
Ndi	-6751
▁9.	-6752
▁Ge	-6753
▁bɛn	-6754
▁ṣáà	-6755
▁Plat	-6756
▁dídá	-6757
vumela	-6758
yebíye	-6759
▁oloṣelu	-6760
▁unemibuzo	-6761
25	-6762
▁sup	-6763
▁fárá	-6764
▁kete	-6765
benzisa	-6766
▁inkosi	-6767
▁ìdààmú	-6768
▁njengen	-6769
▁tẹsiwaju	-6770
▁emehlweni	-6771
deo	-6772
ket	-6773
lai	-6774
nba	-6775
lezi	-6776
lona	-6777
▁àsì	-6778
agles	-6779
▁sars	-6780
▁ngaye	-6781
dleleni	-6782
▁Doctor	-6783
uu	-6784
qwa	-6785
▁ry	-6786
kẹlẹ	-6787
roro	-6788
vanọ	-6789
zuku	-6790
bheka	-6791
ports	-6792
yumba	-6793
▁aláà	-6794
pheshe	-6795
▁ngisho	-6796
An	-6797
▁PF	-6798
▁àṣí	-6799
qhube	-6800
Africa	-6801
▁akwụkwọ	-6802
▁vashandi	-6803
íní	-6804
▁35	-6805
fọdụ	-6806
ṣere	-6807
▁sɛn	-6808
▁gòkè	-6809
▁hapa	-6810
▁layo	-6811
▁wasu	-6812
▁zayo	-6813
tem	-6814
cent	-6815
kamu	-6816
▁mfu	-6817
▁wemu	-6818
▁ngabo	-6819
▁tatuu	-6820
▁darapọ	-6821
▁olupese	-6822
gamashumi	-6823
▁alákòókò	-6824
▁eziningi	-6825
▁ìwàláàyè	-6826
lɔn	-6827
uel	-6828
laki	-6829
thon	-6830
▁bri	-6831
merwa	-6832
▁daba	-6833
▁léwu	-6834
▁aisan	-6835
▁Njengo	-6836
▁aláìsàn	-6837
▁uK	-6838
▁òdì	-6839
fihan	-6840
shona	-6841
▁bíbá	-6842
tanhatu	-6843
▁kwebala	-6844
líá	-6845
▁kã	-6846
jira	-6847
tywa	-6848
woku	-6849
▁rwe	-6850
▁ẹri	-6851
▁pupa	-6852
▁sɔrɔ	-6853
▁emzini	-6854
▁padanu	-6855
▁namhlanje	-6856
▁esikhundleni	-6857
35	-6858
EC	-6859
gù	-6860
-10	-6861
▁ṣin	-6862
binge	-6863
liswe	-6864
▁tayọ	-6865
▁yemi	-6866
mileyo	-6867
▁daran	-6868
▁àtọwọ	-6869
▁lokuba	-6870
▁imeyile	-6871
ewe	-6872
vuze	-6873
▁som	-6874
▁ɖagbe	-6875
▁ndlela	-6876
▁pricelist	-6877
puma	-6878
raya	-6879
▁11.	-6880
▁tho	-6881
bakar	-6882
chenge	-6883
iselwa	-6884
▁benga	-6885
▁onísáàmù	-6886
▁°	-6887
qwe	-6888
udi	-6889
▁fè	-6890
inum	-6891
tima	-6892
▁ikẹkọ	-6893
ገር	-6894
rew	-6895
▁emn	-6896
▁asɛm	-6897
▁kino	-6898
▁kupa	-6899
▁mímu	-6900
chukwu	-6901
kíyèsí	-6902
▁super	-6903
▁wakwa	-6904
▁vakati	-6905
ዚህ	-6906
▁6,	-6907
kwane	-6908
▁boku	-6909
▁ngabe	-6910
▁utsho	-6911
▁eleyii	-6912
▁ɛyɛ	-6913
sithi	-6914
▁2013	-6915
▁ukubu	-6916
thengisa	-6917
hannesburg	-6918
hlabathini	-6919
sente	-6920
▁ṣeun	-6921
phinda	-6922
zekelo	-6923
▁jóṣúà	-6924
▁mumwe	-6925
▁Kuthiwa	-6926
sana	-6927
zuzo	-6928
▁Hos	-6929
▁ọsi	-6930
istre	-6931
▁sìgá	-6932
▁jákèjádò	-6933
awo	-6934
dis	-6935
▁Sh	-6936
▁nh	-6937
▁ikò	-6938
▁ipari	-6939
▁aláìpé	-6940
▁bazali	-6941
▁Fo	-6942
▁Yo	-6943
▁sè	-6944
▁ṣú	-6945
tuli	-6946
▁ikan	-6947
▁lógún	-6948
▁fílípì	-6949
▁olùdarí	-6950
boni	-6951
▁adé	-6952
boolu	-6953
▁kupo	-6954
▁2020.	-6955
▁years	-6956
jinigbe	-6957
▁instagram	-6958
Uma	-6959
tus	-6960
hweba	-6961
▁wona	-6962
▁ìṣírí	-6963
pti	-6964
qumo	-6965
▁fãa	-6966
sinye	-6967
▁hali	-6968
▁maha	-6969
▁rose	-6970
▁york	-6971
▁ìdìbò	-6972
▁mashanu	-6973
bya	-6974
pira	-6975
veza	-6976
xelo	-6977
zuzu	-6978
▁eji	-6979
senga	-6980
zinda	-6981
▁àìpẹ	-6982
àníyàn	-6983
▁japan	-6984
▁umzimba	-6985
▁pamusoro	-6986
▁kila	-6987
garaga	-6988
khipha	-6989
ponami	-6990
▁munhu	-6991
▁otutu	-6992
▁ẹnìkan	-6993
▁ngokwen	-6994
gura	-6995
▁mee	-6996
khali	-6997
▁azǎn	-6998
▁zase	-6999
▁zezi	-7000
▁dídùn	-7001
hliziyo	-7002
▁impilo	-7003
dlulanga	-7004
ila	-7005
▁aá	-7006
loju	-7007
sere	-7008
▁kuM	-7009
▁òwú	-7010
shasa	-7011
tattoo	-7012
▁zingadlulanga	-7013
CC	-7014
▁flo	-7015
ለው	-7016
gezi	-7017
▁Emva	-7018
▁dide	-7019
▁iriri	-7020
▁kwawo	-7021
▁watch	-7022
▁ጉ	-7023
row	-7024
▁sy	-7025
▁yã	-7026
áàlú	-7027
▁kpɛ	-7028
danda	-7029
▁kẹjọ	-7030
▁ndani	-7031
Bhayibheli	-7032
bla	-7033
ess	-7034
▁lɔ	-7035
▁uG	-7036
jele	-7037
lujá	-7038
▁Ngu	-7039
badde	-7040
rairi	-7041
▁lodi	-7042
▁ṣẹṣẹ	-7043
▁ọṣun	-7044
tshaba	-7045
▁kuenda	-7046
▁àníyàn	-7047
lójú	-7048
▁edu	-7049
▁àjẹ	-7050
ville	-7051
▁forí	-7052
▁mvura	-7053
▁vanga	-7054
▁akọroyin	-7055
▁shugaban	-7056
17	-7057
DA	-7058
here	-7059
puru	-7060
ọdun	-7061
▁17.	-7062
▁gàn	-7063
ciety	-7064
yiswa	-7065
▁fídíò	-7066
khusele	-7067
▁kwenza	-7068
▁ìpínrọ	-7069
gangatho	-7070
hɔn	-7071
rst	-7072
bati	-7073
▁kyo	-7074
▁ajili	-7075
▁ezimbili	-7076
hẹ	-7077
zh	-7078
níkà	-7079
▁ìbò	-7080
▁እንዲ	-7081
shaka	-7082
▁boma	-7083
▁eyin	-7084
▁lákọ	-7085
▁kíláàsì	-7086
beko	-7087
lite	-7088
méjì	-7089
reen	-7090
rugẹ	-7091
pment	-7092
▁Magufuli	-7093
eti	-7094
ómì	-7095
▁ɔn	-7096
rial	-7097
▁jwa	-7098
▁pia	-7099
▁ìkà	-7100
▁dira	-7101
▁wavo	-7102
▁ògbó	-7103
mnandi	-7104
▁alaba	-7105
▁àfikún	-7106
▁mokambi	-7107
▁gbiyanju	-7108
md	-7109
bhamu	-7110
▁icha	-7111
▁wami	-7112
▁yakwa	-7113
rayá	-7114
▁Aka	-7115
▁dai	-7116
▁hɛn	-7117
▁nsa	-7118
▁mntu	-7119
▁ọmọn	-7120
▁ipilẹ	-7121
▁pakati	-7122
▁nwaanyị	-7123
▁amakhulu	-7124
▁musangano	-7125
Yo	-7126
bè	-7127
ሪያ	-7128
mfi	-7129
guta	-7130
vani	-7131
▁193	-7132
mbala	-7133
▁mazana	-7134
▁ayọkẹlẹ	-7135
13	-7136
weza	-7137
▁èwe	-7138
lwayo	-7139
▁dìgbà	-7140
▁Ngenxa	-7141
▁Polisi	-7142
kurugenzi	-7143
▁9,	-7144
mata	-7145
roni	-7146
▁Sha	-7147
▁tsi	-7148
right	-7149
▁fifa	-7150
▁kwii	-7151
▁mọlẹ	-7152
▁àsìá	-7153
mission	-7154
▁iléèwé	-7155
hon	-7156
▁wŭ	-7157
rima	-7158
zisi	-7159
▁cla	-7160
kanda	-7161
tsira	-7162
▁lẹni	-7163
kulung	-7164
▁màlúù	-7165
▁indodana	-7166
cac	-7167
owo	-7168
▁ito	-7169
▁ogb	-7170
dumbu	-7171
▁fesi	-7172
▁osun	-7173
▁ungu	-7174
ṣeyọrí	-7175
zis	-7176
chwe	-7177
rónì	-7178
▁Poli	-7179
▁neza	-7180
▁ụgbọ	-7181
▁jíǹde	-7182
ratidzira	-7183
cur	-7184
lex	-7185
▁ayɛ	-7186
kwira	-7187
▁anti	-7188
▁òǹkọ	-7189
▁muntu	-7190
▁òkèèrè	-7191
gadzirisa	-7192
GA	-7193
hlwe	-7194
▁uha	-7195
▁ẹyọ	-7196
selwa	-7197
▁kpɔn	-7198
▁sonke	-7199
▁enyika	-7200
▁abaninzi	-7201
No	-7202
kìkí	-7203
hlalo	-7204
▁kwakhona	-7205
rds	-7206
uta	-7207
kuna	-7208
▁nor	-7209
▁ulu	-7210
isọrọ	-7211
▁koro	-7212
▁pade	-7213
▁yame	-7214
▁fáráò	-7215
phelele	-7216
tegeeze	-7217
▁alábàá	-7218
SE	-7219
gia	-7220
▁37	-7221
▁her	-7222
▁kéé	-7223
▁àdá	-7224
krele	-7225
thuma	-7226
▁lówó	-7227
▁yuni	-7228
lujára	-7229
▁wáìnì	-7230
▁kukuba	-7231
▁agbaboolu	-7232
▁usebenzisa	-7233
ቶች	-7234
ous	-7235
▁ለመ	-7236
▁ibò	-7237
kèèké	-7238
redit	-7239
▁Bara	-7240
▁oore	-7241
▁ukudla	-7242
ሆነ	-7243
▁dom	-7244
▁2014	-7245
▁Jean	-7246
▁kọlu	-7247
mnyaka	-7248
▁kìlómítà	-7249
raa	-7250
▁Gi	-7251
melo	-7252
▁Kam	-7253
▁gar	-7254
▁kam	-7255
chena	-7256
kelela	-7257
shesha	-7258
▁kunge	-7259
▁aráàlú	-7260
▁august	-7261
▁uthole	-7262
▁panguva	-7263
lindeleke	-7264
▁ipolongo	-7265
▁lágbègbè	-7266
bono	-7267
tlhe	-7268
▁spe	-7269
▁tɛn	-7270
▁kutsho	-7271
chiremba	-7272
▁arìnrìn	-7273
lue	-7274
ner	-7275
bira	-7276
gaqo	-7277
guli	-7278
pile	-7279
▁Kwi	-7280
▁tla	-7281
▁nito	-7282
▁ṣubú	-7283
▁jogún	-7284
▁ndoda	-7285
▁tiata	-7286
sangana	-7287
▁mhosva	-7288
Uni	-7289
imi	-7290
kki	-7291
honu	-7292
▁chu	-7293
▁fit	-7294
▁alààyè	-7295
lulekileyo	-7296
18	-7297
nyə	-7298
▁bè	-7299
meza	-7300
wona	-7301
zida	-7302
▁ilú	-7303
▁àbù	-7304
▁Cour	-7305
▁bolo	-7306
▁hatua	-7307
▁ifihan	-7308
▁òkùnkùn	-7309
".	-7310
-200	-7311
▁nxa	-7312
wosan	-7313
▁Mkoa	-7314
▁gige	-7315
▁lawo	-7316
▁maku	-7317
▁ipamọ	-7318
tre	-7319
xhe	-7320
▁sm	-7321
▁ወደ	-7322
▁የም	-7323
sonde	-7324
▁Musa	-7325
▁ngeli	-7326
▁ìsinmi	-7327
shandisa	-7328
▁ukubona	-7329
bã	-7330
fɔ	-7331
sea	-7332
▁atu	-7333
déhùn	-7334
ruary	-7335
irates	-7336
▁oṣere	-7337
▁aṣayan	-7338
tam	-7339
▁iP	-7340
anya	-7341
buja	-7342
tile	-7343
wale	-7344
▁are	-7345
khang	-7346
wunti	-7347
▁kili	-7348
Sawule	-7349
nikelo	-7350
▁ìparí	-7351
▁Joseph	-7352
BA	-7353
iko	-7354
kimu	-7355
mọdé	-7356
▁bia	-7357
▁ebo	-7358
▁duni	-7359
fọwọyi	-7360
▁akéde	-7361
▁mjini	-7362
▁oyinbo	-7363
▁kéékèèké	-7364
▁Mnangagwa	-7365
▁ግን	-7366
kára	-7367
sókè	-7368
▁itẹ	-7369
fuuru	-7370
▁tinú	-7371
▁ukwen	-7372
▁uyaku	-7373
▁uMoses	-7374
▁Kinshasa	-7375
▁kwenzeka	-7376
ball	-7377
▁lẹẹ	-7378
sweni	-7379
▁wole	-7380
▁kwaka	-7381
▁endlini	-7382
▁umntwana	-7383
omi	-7384
oor	-7385
▁UK	-7386
onse	-7387
▁Cape	-7388
▁Pere	-7389
▁dani	-7390
▁ukwe	-7391
▁2019,	-7392
▁Inter	-7393
▁mmoja	-7394
▁zveku	-7395
▁ɲɔgɔn	-7396
fuurufú	-7397
▁láwùjọ	-7398
Ya	-7399
ăn	-7400
▁Ap	-7401
iwọn	-7402
yore	-7403
▁deɛ	-7404
luntu	-7405
pinga	-7406
▁Juma	-7407
▁dudu	-7408
▁kwizi	-7409
arriors	-7410
khiqizo	-7411
▁Uwanja	-7412
yili	-7413
▁16.	-7414
▁eve	-7415
▁síta	-7416
▁Ndiya	-7417
▁wə	-7418
teli	-7419
yẹmi	-7420
bikho	-7421
chael	-7422
tende	-7423
▁àṣírí	-7424
bel	-7425
▁7,	-7426
cele	-7427
kaze	-7428
▁bati	-7429
▁fẹsẹ	-7430
kwikwi	-7431
▁zviuru	-7432
thandana	-7433
▁cè	-7434
dade	-7435
lawo	-7436
▁àrò	-7437
isusu	-7438
qondo	-7439
zelwa	-7440
▁cent	-7441
▁vasa	-7442
ynamos	-7443
▁lagba	-7444
▁àjèjì	-7445
khawunti	-7446
▁taarifa	-7447
▁Eli	-7448
dzeri	-7449
▁medi	-7450
▁nins	-7451
lisema	-7452
▁Nations	-7453
▁ebusuku	-7454
ደረ	-7455
▁hú	-7456
rity	-7457
semb	-7458
▁yio	-7459
anchi	-7460
gweni	-7461
▁fìyà	-7462
▁micro	-7463
▁ndiku	-7464
▁ìṣèlú	-7465
▁gbogun	-7466
▁mayelana	-7467
▁ሊ	-7468
ẹni	-7469
▁sci	-7470
▁asopọ	-7471
▁gangan	-7472
▁yekuti	-7473
▁ṣinṣin	-7474
gwụ	-7475
▁see	-7476
▁ìyọ	-7477
thoko	-7478
tsuku	-7479
▁fran	-7480
▁kuru	-7481
▁nani	-7482
▁ìràwọ	-7483
▁alákòó	-7484
▁anfaani	-7485
▁ukusuka	-7486
gxo	-7487
tory	-7488
vari	-7489
▁10,	-7490
▁bímọ	-7491
▁jọwọ	-7492
▁linga	-7493
▁uJesu	-7494
▁windows	-7495
▁gọọmenti	-7496
Jesu	-7497
ford	-7498
gede	-7499
pati	-7500
▁BBC	-7501
▁ìṣò	-7502
khanda	-7503
manuel	-7504
▁òmíràn	-7505
rairidzi	-7506
▁apejuwe	-7507
še	-7508
muzi	-7509
tete	-7510
▁ọkụ	-7511
▁lòun	-7512
▁Ukuze	-7513
▁abájọ	-7514
▁bible	-7515
▁Platinum	-7516
▁òfuurufú	-7517
500	-7518
afọ	-7519
ler	-7520
dolu	-7521
kude	-7522
▁opó	-7523
Ukuba	-7524
bhalo	-7525
▁alai	-7526
▁bano	-7527
▁weng	-7528
khanya	-7529
▁lutho	-7530
▁mobile	-7531
▁ogunlọ	-7532
▁ekuseni	-7533
▁Bí	-7534
cedo	-7535
▁Ada	-7536
▁Unga	-7537
▁iban	-7538
▁ṣàkó	-7539
▁ọnọdụ	-7540
▁iyipada	-7541
70	-7542
xy	-7543
▁ክ	-7544
hia	-7545
mfa	-7546
kethe	-7547
▁Fran	-7548
▁atin	-7549
▁isun	-7550
▁okwu	-7551
▁lapha	-7552
▁mitɔn	-7553
midlalo	-7554
kululeko	-7555
wèé	-7556
▁IN	-7557
kọjá	-7558
ogle	-7559
▁VaE	-7560
▁ìmúṣẹ	-7561
bhekene	-7562
▁kupitia	-7563
▁€	-7564
ríjì	-7565
▁Uya	-7566
▁Yor	-7567
▁akụ	-7568
▁gra	-7569
▁lolu	-7570
▁hausa	-7571
akwụkwọ	-7572
tegeezezza	-7573
IA	-7574
lar	-7575
galo	-7576
▁nyɛ	-7577
isele	-7578
thoba	-7579
▁kufu	-7580
▁níjà	-7581
▁ezine	-7582
▁kwenu	-7583
▁mmemme	-7584
▁Nàìjíríà	-7585
tyi	-7586
ung	-7587
▁kia	-7588
▁lis	-7589
▁mis	-7590
▁látà	-7591
▁dzeku	-7592
▁funra	-7593
▁okwen	-7594
▁ababili	-7595
dɔ	-7596
eyi	-7597
ọmọ	-7598
▁VaN	-7599
▁tóo	-7600
dindi	-7601
sanga	-7602
▁leti	-7603
▁mora	-7604
hlanga	-7605
▁gbéṣẹ	-7606
▁kubwa	-7607
▁ìdàgbà	-7608
▁intombi	-7609
▁yanturu	-7610
▁uk	-7611
gola	-7612
▁edo	-7613
▁itu	-7614
▁ken	-7615
▁sim	-7616
pìtàn	-7617
▁kóun	-7618
Ngqina	-7619
kundla	-7620
▁iwaju	-7621
▁mabao	-7622
▁ìbàjẹ	-7623
▁ògiri	-7624
▁tẹlifí	-7625
AR	-7626
vc	-7627
tyo	-7628
▁Em	-7629
dùma	-7630
▁abana	-7631
▁adití	-7632
▁amane	-7633
▁cheku	-7634
▁yambo	-7635
gụ	-7636
mic	-7637
balo	-7638
▁Iye	-7639
▁ink	-7640
▁mul	-7641
▁mya	-7642
▁ìrọ	-7643
hlali	-7644
qambi	-7645
▁asia	-7646
andishi	-7647
vel	-7648
gang	-7649
pamu	-7650
▁obun	-7651
▁abazi	-7652
▁april	-7653
▁Minisi	-7654
▁eliphezulu	-7655
▁Ṣ	-7656
doju	-7657
mẹta	-7658
▁àtì	-7659
▁igbá	-7660
▁vavo	-7661
dùmarè	-7662
▁ngako	-7663
▁ibhola	-7664
▁ụbọchị	-7665
▁ndawonye	-7666
nam	-7667
▁Wɔ	-7668
poli	-7669
ziso	-7670
▁paam	-7671
▁ṣojú	-7672
yathelo	-7673
ɖi	-7674
-12	-7675
lea	-7676
rey	-7677
unt	-7678
àrà	-7679
taura	-7680
▁babu	-7681
▁níbí	-7682
▁supa	-7683
▁ukum	-7684
▁ranṣẹ	-7685
▁sokuba	-7686
▁alákòóso	-7687
pí	-7688
fini	-7689
unge	-7690
▁agu	-7691
▁wit	-7692
▁ọnụ	-7693
▁dàbí	-7694
thunywa	-7695
▁atunṣe	-7696
▁itanna	-7697
▁bitumba	-7698
▁ngexesha	-7699
▁ojoojúmọ	-7700
▁Mkurugenzi	-7701
via	-7702
istan	-7703
kunze	-7704
▁kuso	-7705
He	-7706
ለት	-7707
▁36	-7708
▁አይ	-7709
mímọ	-7710
zibu	-7711
tshwe	-7712
▁yisi	-7713
xelela	-7714
▁Lokhu	-7715
▁aliye	-7716
▁david	-7717
▁bọtini	-7718
▁umphefumlo	-7719
ɖɔ	-7720
Eli	-7721
kar	-7722
sey	-7723
▁uvu	-7724
▁መንግ	-7725
▁Stars	-7726
▁nwoke	-7727
▁olùjọ	-7728
▁zanga	-7729
▁amehlo	-7730
▁ụlọọrụ	-7731
▁amagama	-7732
▁muZimbabwe	-7733
xwé	-7734
ínà	-7735
nilẹ	-7736
▁14,	-7737
▁lami	-7738
gbàáyé	-7739
misela	-7740
nology	-7741
▁masha	-7742
▁idaraya	-7743
▁National	-7744
▁ultrasonic	-7745
▁veruzhinji	-7746
qua	-7747
ẹti	-7748
▁70	-7749
diwa	-7750
teri	-7751
▁nwụ	-7752
▁ọnà	-7753
chara	-7754
dlale	-7755
▁offi	-7756
▁tìrẹ	-7757
Google	-7758
▁Gọ	-7759
kiwe	-7760
▁ize	-7761
▁ẹti	-7762
▁ahan	-7763
thande	-7764
▁esibhedlela	-7765
▁Johannesburg	-7766
LA	-7767
▁በማ	-7768
lati	-7769
▁ìpo	-7770
▁adan	-7771
▁lwen	-7772
▁yára	-7773
tonger	-7774
▁2018.	-7775
▁mbele	-7776
▁ekuqaleni	-7777
lm	-7778
lt	-7779
zụ	-7780
ስጥ	-7781
páta	-7782
▁Bro	-7783
wandu	-7784
▁lápá	-7785
keredolu	-7786
khuthaza	-7787
▁ìjíròrò	-7788
lola	-7789
▁afa	-7790
▁àwo	-7791
▁Hayo	-7792
▁Ligi	-7793
▁bami	-7794
▁ethu	-7795
▁jawe	-7796
▁yemu	-7797
ongeza	-7798
lf	-7799
əŋ	-7800
ord	-7801
ràá	-7802
wùn	-7803
▁Jam	-7804
▁aro	-7805
▁kha	-7806
▁àpò	-7807
▁zaka	-7808
lishumi	-7809
▁credit	-7810
▁nígbàgbọ	-7811
sco	-7812
biko	-7813
caci	-7814
▁18.	-7815
▁sẹn	-7816
twini	-7817
▁june	-7818
▁láṣẹ	-7819
▁dziri	-7820
▁mmara	-7821
▁igbese	-7822
▁àdéhùn	-7823
▁lágbàáyé	-7824
▁yagambye	-7825
22	-7826
omwe	-7827
▁Nde	-7828
▁spa	-7829
▁tai	-7830
▁ọta	-7831
▁bubu	-7832
▁fore	-7833
▁tõnd	-7834
curren	-7835
▁Maazị	-7836
▁nguva	-7837
▁london	-7838
▁factory	-7839
▁wukuthi	-7840
▁kulandela	-7841
šẹ	-7842
end	-7843
heka	-7844
▁Kuu	-7845
▁New	-7846
▁ndụ	-7847
lunye	-7848
▁jalo	-7849
▁igazi	-7850
▁kwalo	-7851
sebenze	-7852
▁ngempela	-7853
▁Coronavirus	-7854
ራት	-7855
king	-7856
▁htt	-7857
▁ltd	-7858
anada	-7859
yiphi	-7860
▁idzi	-7861
bonaka	-7862
kanani	-7863
▁abdul	-7864
▁benin	-7865
▁kunze	-7866
▁nguye	-7867
thandwa	-7868
Bu	-7869
ogi	-7870
▁34	-7871
ceba	-7872
▁fíì	-7873
▁títẹ	-7874
▁wada	-7875
▁akiti	-7876
▁yinbọn	-7877
bhizinisi	-7878
▁dzevanhu	-7879
▁jikelele	-7880
nia	-7881
pwa	-7882
mala	-7883
▁mam	-7884
▁alawọ	-7885
▁imoto	-7886
▁vange	-7887
▁aṣòfin	-7888
▁buruku	-7889
▁jamana	-7890
▁látàrí	-7891
▁okunga	-7892
▁Amerika	-7893
▁elikhulu	-7894
▁igbeyawo	-7895
▁oniroyin	-7896
UN	-7897
cine	-7898
dọta	-7899
tane	-7900
▁izwi	-7901
▁sase	-7902
fileyo	-7903
▁mpaka	-7904
▁umama	-7905
▁kwindawo	-7906
key	-7907
buni	-7908
gere	-7909
kule	-7910
▁olè	-7911
▁wáp	-7912
▁ẹwà	-7913
▁angu	-7914
▁ṣeni	-7915
▁united	-7916
▁zabantu	-7917
▁darandaran	-7918
ǹlà	-7919
▁sc	-7920
dula	-7921
lomi	-7922
rani	-7923
yiwa	-7924
▁jona	-7925
▁jékọ	-7926
▁libe	-7927
Afrika	-7928
cwangc	-7929
rinrin	-7930
▁awoṣe	-7931
▁kawọn	-7932
gqibelo	-7933
▁ńláǹlà	-7934
kosikazi	-7935
▁agbẹjọro	-7936
balẹ	-7937
koto	-7938
veki	-7939
▁ìró	-7940
caban	-7941
sidee	-7942
▁tọwọ	-7943
▁ሳ	-7944
gwen	-7945
mail	-7946
rand	-7947
batwa	-7948
rudzo	-7949
▁bale	-7950
▁isẹlẹ	-7951
▁yanga	-7952
▁kosala	-7953
▁tariki	-7954
▁Twitter	-7955
▁alukoro	-7956
▁yabantu	-7957
▁ezintsha	-7958
▁kai	-7959
▁kọmi	-7960
▁ṣàṣà	-7961
khetho	-7962
▁gbilẹ	-7963
▁gbona	-7964
▁leyin	-7965
▁mberi	-7966
▁tẽnga	-7967
▁nemusi	-7968
▁ṣèwádìí	-7969
▁maponami	-7970
▁tẹlifíṣọ	-7971
WA	-7972
cast	-7973
▁neS	-7974
badan	-7975
▁aiku	-7976
▁afihan	-7977
▁ipinnu	-7978
tongerwo	-7979
wesilisa	-7980
▁akeredolu	-7981
doɔ	-7982
▁fó	-7983
dale	-7984
ríko	-7985
zine	-7986
▁angi	-7987
▁dáwọ	-7988
▁ololu	-7989
sg	-7990
▁ጋ	-7991
baa	-7992
ssi	-7993
dumo	-7994
hluka	-7995
tundu	-7996
▁nche	-7997
▁sana	-7998
▁ìdánwò	-7999
▁àṣeyọrí	-8000
▁ìdárayá	-8001
▁arabinrin	-8002
líà	-8003
baga	-8004
gare	-8005
▁jáì	-8006
bindi	-8007
▁efcc	-8008
▁lọdọ	-8009
▁ucha	-8010
▁yalo	-8011
▁yoko	-8012
▁ukusu	-8013
tevedzeri	-8014
▁wokuqala	-8015
onal	-8016
▁gẹẹ	-8017
▁cyan	-8018
▁ngwa	-8019
▁toun	-8020
▁ṣiṣu	-8021
thupha	-8022
▁isimo	-8023
mmerson	-8024
▁jérúsálẹ	-8025
▁rw	-8026
cess	-8027
haji	-8028
▁eru	-8029
▁ewú	-8030
gathi	-8031
hlaka	-8032
chitha	-8033
▁kẹsan	-8034
▁nzima	-8035
▁olówó	-8036
▁orísun	-8037
Thekwini	-8038
▁ukuthola	-8039
ሆን	-8040
kio	-8041
ńbà	-8042
▁my	-8043
diri	-8044
duka	-8045
▁20.	-8046
▁osa	-8047
▁ነው።	-8048
▁down	-8049
▁kesi	-8050
khokhe	-8051
▁àkọlé	-8052
tangaza	-8053
dlwengula	-8054
▁nemakumi	-8055
▁ayélujára	-8056
▁waandishi	-8057
gán	-8058
▁ɖù	-8059
qaku	-8060
vuka	-8061
▁Omu	-8062
▁uMo	-8063
isile	-8064
sẹẹsẹ	-8065
▁Coun	-8066
▁ezen	-8067
▁kira	-8068
▁kodi	-8069
▁iyara	-8070
▁isicelo	-8071
dinlọgbọn	-8072
vumelwano	-8073
▁ezinkulu	-8074
▁ikakhulu	-8075
▁international	-8076
▁ek	-8077
▁kpe	-8078
▁pet	-8079
▁ẹní	-8080
▁àtún	-8081
▁akwan	-8082
▁elinye	-8083
▁kwethu	-8084
shishini	-8085
▁machine	-8086
▁kwezinye	-8087
▁national	-8088
byo	-8089
qun	-8090
▁ụzọ	-8091
▁sibi	-8092
▁afẹfẹ	-8093
▁akọwe	-8094
▁ibere	-8095
▁iboju	-8096
▁oníwà	-8097
▁amanye	-8098
▁bìkítà	-8099
▁serikali	-8100
▁dambudziko	-8101
rayé	-8102
zamo	-8103
bvumi	-8104
rsenal	-8105
▁batho	-8106
▁yayin	-8107
endeleo	-8108
▁alagba	-8109
▁uhlobo	-8110
kholelwa	-8111
▁kukwanisa	-8112
▁Fi	-8113
Faro	-8114
▁Eku	-8115
▁Mana	-8116
▁agbé	-8117
▁musu	-8118
▁ẹwọn	-8119
phupha	-8120
▁wanda	-8121
ongress	-8122
pheleni	-8123
▁ìfaradà	-8124
▁if	-8125
▁zã	-8126
foro	-8127
▁abɔ	-8128
lands	-8129
wango	-8130
risirwa	-8131
▁ayérayé	-8132
▁imudoju	-8133
▁incwadi	-8134
▁uthando	-8135
ያን	-8136
hou	-8137
otọ	-8138
dima	-8139
kade	-8140
▁balo	-8141
▁kàwé	-8142
sukwini	-8143
▁biribi	-8144
▁abaningi	-8145
TE	-8146
ጊዜ	-8147
’,	-8148
yán	-8149
sọna	-8150
▁abọ	-8151
▁cor	-8152
▁jiri	-8153
▁king	-8154
▁mina	-8155
▁ìgbè	-8156
▁gagwe	-8157
▁nukún	-8158
▁olóye	-8159
▁ìtura	-8160
ffe	-8161
rum	-8162
▁uL	-8163
gabo	-8164
gize	-8165
kika	-8166
lish	-8167
▁Kha	-8168
▁UMa	-8169
▁per	-8170
▁pipa	-8171
▁plus	-8172
▁wala	-8173
zvarwa	-8174
▁iṣoro	-8175
▁mechi	-8176
chester	-8177
lingana	-8178
▁éjíbítì	-8179
▁arakunrin	-8180
hụ	-8181
àrẹ	-8182
funo	-8183
liki	-8184
▁And	-8185
▁leè	-8186
▁mfa	-8187
mbana	-8188
panga	-8189
▁Izin	-8190
▁fẹnu	-8191
▁oniwe	-8192
kunceda	-8193
23	-8194
gx	-8195
ረት	-8196
▁vɛ	-8197
▁zh	-8198
▁whi	-8199
▁Aban	-8200
▁Moyo	-8201
▁igun	-8202
chidiki	-8203
▁mibale	-8204
Ha	-8205
▁idẹ	-8206
hloso	-8207
▁wíwá	-8208
dọọdún	-8209
▁abase	-8210
▁akojọ	-8211
▁ifowo	-8212
▁brazil	-8213
matongerwo	-8214
xú	-8215
ufa	-8216
áná	-8217
chaka	-8218
enela	-8219
▁Maha	-8220
▁liya	-8221
▁adarí	-8222
▁ẹnikan	-8223
▁afirika	-8224
▁ekubeni	-8225
▁wananchi	-8226
ice	-8227
▁Lá	-8228
bori	-8229
toro	-8230
▁anọ	-8231
▁bor	-8232
butho	-8233
menye	-8234
▁West	-8235
▁sala	-8236
zekile	-8237
qhubeke	-8238
▁Mugabe	-8239
▁wesifazane	-8240
ተኛ	-8241
tuma	-8242
▁pii	-8243
▁síi	-8244
sengi	-8245
▁pʋgẽ	-8246
▁lethu	-8247
መን	-8248
▁።	-8249
omɛ	-8250
▁UD	-8251
gqibe	-8252
▁Izvi	-8253
▁wanao	-8254
▁àdàkọ	-8255
▁ileesẹ	-8256
▁sugbọn	-8257
▁impahla	-8258
rm	-8259
akụ	-8260
lls	-8261
▁eP	-8262
▁báa	-8263
▁nnu	-8264
elson	-8265
kosha	-8266
kwana	-8267
simba	-8268
▁seka	-8269
▁sipo	-8270
ryango	-8271
▁fòpin	-8272
▁jagun	-8273
▁kween	-8274
▁kejila	-8275
▁ssente	-8276
▁lọwọlọwọ	-8277
▁pàfiyèsí	-8278
▁Okhulumela	-8279
yò	-8280
buga	-8281
▁ifọ	-8282
▁ábí	-8283
▁video	-8284
batsira	-8285
▁igboho	-8286
▁rinoti	-8287
▁sípàdé	-8288
▁olumulo	-8289
▁muHarare	-8290
cil	-8291
▁Pi	-8292
▁Pha	-8293
▁ejò	-8294
▁làá	-8295
rìnlá	-8296
kelayo	-8297
▁yetɔn	-8298
shiriki	-8299
▁google	-8300
▁African	-8301
▁egungun	-8302
setshenziswa	-8303
yii	-8304
▁ww	-8305
▁tín	-8306
▁ነበር	-8307
thandathu	-8308
▁nendlela	-8309
Ki	-8310
tum	-8311
ombe	-8312
▁Ati	-8313
▁òsì	-8314
fasha	-8315
shone	-8316
▁isan	-8317
▁okùn	-8318
▁ròyìn	-8319
▁support	-8320
▁chiremba	-8321
CO	-8322
DP	-8323
HA	-8324
▁ub	-8325
sizo	-8326
tayọ	-8327
weli	-8328
▁but	-8329
▁dìí	-8330
▁ìké	-8331
bheke	-8332
denti	-8333
gbaja	-8334
▁dipo	-8335
▁masa	-8336
▁pẹlẹ	-8337
▁World	-8338
▁kupata	-8339
▁njengom	-8340
▁ጠ	-8341
ayo	-8342
zam	-8343
jiwa	-8344
ppin	-8345
▁ger	-8346
▁ten	-8347
▁àkò	-8348
akobi	-8349
dzivi	-8350
itika	-8351
kakhe	-8352
yinti	-8353
▁tutu	-8354
▁yaku	-8355
▁nange	-8356
yarwanda	-8357
FF	-8358
▁ሚ	-8359
ans	-8360
gas	-8361
lee	-8362
tiro	-8363
wuye	-8364
▁11,	-8365
▁bao	-8366
▁báà	-8367
fiisi	-8368
tamba	-8369
▁Maga	-8370
▁buli	-8371
▁mumi	-8372
▁onwe	-8373
▁lizwe	-8374
gqibela	-8375
▁pípéye	-8376
▁ìdánilójú	-8377
cis	-8378
▁gà	-8379
▁pc	-8380
jiṣẹ	-8381
kẹsẹ	-8382
onde	-8383
▁tri	-8384
▁rema	-8385
takiwa	-8386
▁ariwa	-8387
▁esiko	-8388
▁Katika	-8389
biashara	-8390
▁kokuthi	-8391
▁ilọsiwaju	-8392
usu	-8393
▁hó	-8394
▁ነዉ	-8395
jeni	-8396
lowa	-8397
ṣiṣe	-8398
▁iyọ	-8399
▁àkà	-8400
▁ìtò	-8401
finye	-8402
▁ying	-8403
▁kwazo	-8404
▁iphone	-8405
▁olùgbé	-8406
hw	-8407
gci	-8408
▁Tho	-8409
ganya	-8410
▁humo	-8411
▁azali	-8412
kanzuru	-8413
sebenzise	-8414
isọ	-8415
web	-8416
ruka	-8417
▁Esi	-8418
▁tur	-8419
jenga	-8420
lenga	-8421
mbela	-8422
bójútó	-8423
luleke	-8424
tsheng	-8425
▁akiwa	-8426
▁dukia	-8427
▁mẹwaa	-8428
▁nkhani	-8429
▁ngubani	-8430
leri	-8431
phuh	-8432
▁www	-8433
chard	-8434
yehyɛ	-8435
▁dúdú	-8436
▁fipá	-8437
▁ikun	-8438
gameli	-8439
ration	-8440
vember	-8441
▁fedha	-8442
▁iṣẹgun	-8443
▁lójúfò	-8444
▁akitiyan	-8445
hlanganisa	-8446
bajo	-8447
pútà	-8448
▁top	-8449
yelwe	-8450
▁asán	-8451
▁kíkà	-8452
▁ikọlu	-8453
▁òwúrọ	-8454
▁gwamna	-8455
ipa	-8456
ãmb	-8457
ńlá	-8458
vers	-8459
▁enu	-8460
▁hùn	-8461
Ngoku	-8462
dingo	-8463
ining	-8464
▁ráyè	-8465
▁dìídì	-8466
▁Mukuru	-8467
▁niwaju	-8468
▁obirin	-8469
▁mekunge	-8470
▁eB	-8471
kátà	-8472
▁ɔde	-8473
gcini	-8474
thulu	-8475
▁ṣẹda	-8476
▁kpọrọ	-8477
▁ìwòye	-8478
▁kuhusu	-8479
▁school	-8480
▁ṣàṣeyọrí	-8481
▁ìdàgbàsókè	-8482
Oku	-8483
▁iz	-8484
isin	-8485
load	-8486
pena	-8487
úùtù	-8488
▁bwo	-8489
▁uSi	-8490
linda	-8491
mbona	-8492
▁Koma	-8493
▁akwɛ	-8494
▁bora	-8495
▁lulẹ	-8496
ondolo	-8497
▁kuona	-8498
▁nígbèé	-8499
▁ngosuku	-8500
▁níjàánu	-8501
▁ṣàníyàn	-8502
val	-8503
kuma	-8504
▁oja	-8505
▁pam	-8506
▁ìṣú	-8507
hlola	-8508
kànwá	-8509
yelwa	-8510
▁ukunga	-8511
thetheli	-8512
▁mohammed	-8513
ee	-8514
bus	-8515
dar	-8516
mfo	-8517
-19.	-8518
soma	-8519
yala	-8520
▁amá	-8521
habvu	-8522
ǹpútà	-8523
▁chris	-8524
▁imọlẹ	-8525
▁klabu	-8526
▁koodu	-8527
▁minis	-8528
▁nokun	-8529
▁nígbèésí	-8530
▁cryptocurren	-8531
86	-8532
▁gaa	-8533
▁kye	-8534
dziwa	-8535
iselo	-8536
lwimi	-8537
shini	-8538
zvina	-8539
▁yoba	-8540
▁እንደሚ	-8541
▁kwami	-8542
▁olukọ	-8543
lungele	-8544
▁Vanoti	-8545
▁sunkún	-8546
▁society	-8547
▁emdlalweni	-8548
-15	-8549
100	-8550
xwa	-8551
▁wʋ	-8552
▁For	-8553
▁ntʉ	-8554
kamba	-8555
tandu	-8556
▁waza	-8557
meroon	-8558
▁adájọ	-8559
ደር	-8560
▁đ	-8561
▁op	-8562
▁sɩ	-8563
ikpe	-8564
wali	-8565
▁oyè	-8566
▁àgà	-8567
dleko	-8568
rundi	-8569
stitu	-8570
yembe	-8571
yonge	-8572
▁léfì	-8573
mndeni	-8574
▁èkejì	-8575
▁hapana	-8576
▁bitcoin	-8577
-30	-8578
saa	-8579
▁pɛ	-8580
▁12,	-8581
▁Town	-8582
▁seyi	-8583
▁soju	-8584
▁gẹẹsi	-8585
▁january	-8586
▁ifiranṣẹ	-8587
▁september	-8588
▁ọmọbinrin	-8589
Ke	-8590
sk	-8591
ihe	-8592
mit	-8593
sto	-8594
loni	-8595
▁mọn	-8596
líádì	-8597
songa	-8598
▁gaba	-8599
▁gorí	-8600
▁kára	-8601
▁othe	-8602
vidiyo	-8603
▁emuva	-8604
▁kungi	-8605
▁owaye	-8606
▁ìjápọ	-8607
▁abazali	-8608
Me	-8609
tai	-8610
▁cí	-8611
goku	-8612
▁hán	-8613
▁son	-8614
▁kupe	-8615
▁láfi	-8616
▁siwo	-8617
▁wawu	-8618
▁rúùtù	-8619
sikhathi	-8620
dzivirira	-8621
TU	-8622
cɛ	-8623
bule	-8624
yɔrɔ	-8625
▁Ibi	-8626
▁agha	-8627
▁báni	-8628
▁ngiya	-8629
ulawayo	-8630
▁havasi	-8631
▁mujibu	-8632
▁rapera	-8633
▁àtọwọdá	-8634
velopment	-8635
▁ládùúgbò	-8636
▁ìsinsìnyí	-8637
AF	-8638
nen	-8639
▁Kol	-8640
▁dɔn	-8641
▁ivo	-8642
gwiri	-8643
▁athe	-8644
▁ethe	-8645
▁lílọ	-8646
▁Ngoko	-8647
▁march	-8648
▁nechi	-8649
▁lokola	-8650
▁áá	-8651
▁èe	-8652
▁kírí	-8653
▁madi	-8654
xabiso	-8655
▁black	-8656
▁ilanga	-8657
▁zilizo	-8658
thandayo	-8659
▁izandla	-8660
▁vanenge	-8661
kulungwane	-8662
ww	-8663
xwe	-8664
▁ባለ	-8665
Levi	-8666
ties	-8667
yweni	-8668
▁jami	-8669
▁mura	-8670
▁sale	-8671
▁wɔbɛ	-8672
▁kuhle	-8673
▁inyama	-8674
▁nevamwe	-8675
▁olódùmarè	-8676
▁wesangano	-8677
▁ቤ	-8678
rch	-8679
ìlẹ	-8680
logo	-8681
▁day	-8682
▁nja	-8683
▁enta	-8684
▁kẽed	-8685
▁luka	-8686
▁pato	-8687
▁ṣọja	-8688
sintha	-8689
yakeni	-8690
▁ezise	-8691
▁ụfọdụ	-8692
▁VaMnangagwa	-8693
90	-8694
kee	-8695
▁Kɔ	-8696
tats	-8697
▁20,	-8698
▁ijẹ	-8699
kẹyìn	-8700
pihwa	-8701
▁sati	-8702
▁adura	-8703
▁first	-8704
▁àkòrí	-8705
▁lápapọ	-8706
▁ngathi	-8707
▁Premier	-8708
▁Perezida	-8709
▁ngomhlaka	-8710
eko	-8711
ቸውን	-8712
▁gɛ	-8713
ciro	-8714
lumi	-8715
láwọ	-8716
ogbo	-8717
qeqe	-8718
síkò	-8719
▁18,	-8720
▁kub	-8721
▁àmú	-8722
▁chan	-8723
▁mimu	-8724
▁vemu	-8725
yalelo	-8726
▁xesha	-8727
▁esinga	-8728
▁abasebenzi	-8729
▁Mutungamiri	-8730
sún	-8731
ccer	-8732
lode	-8733
wiki	-8734
▁ghə	-8735
abobo	-8736
bhola	-8737
ystem	-8738
yìnbó	-8739
mocratic	-8740
▁mashoko	-8741
▁ajinigbe	-8742
▁umphakathi	-8743
’.	-8744
otu	-8745
ìwò	-8746
▁Fu	-8747
lang	-8748
qonde	-8749
▁2012	-8750
▁búrẹ	-8751
▁mayi	-8752
▁ụmụn	-8753
▁adugbo	-8754
▁lárugẹ	-8755
ንት	-8756
▁ካ	-8757
gwi	-8758
sie	-8759
ẹkọ	-8760
qula	-8761
▁ihò	-8762
gwira	-8763
▁siza	-8764
▁sizo	-8765
▁zenu	-8766
▁inani	-8767
▁kwathi	-8768
▁gílíádì	-8769
▁rezvehutano	-8770
▁aw	-8771
rume	-8772
tóbi	-8773
vera	-8774
chiti	-8775
▁lero	-8776
▁ẹsin	-8777
▁ìpìlẹ	-8778
▁amazwe	-8779
Bulawayo	-8780
▁ukufunda	-8781
▁ṣeyebíye	-8782
gbua	-8783
▁Abe	-8784
Covid	-8785
riswa	-8786
▁Kofi	-8787
▁mapo	-8788
▁were	-8789
angona	-8790
dalama	-8791
▁cutar	-8792
▁dópin	-8793
▁Hakimu	-8794
▁Kigali	-8795
▁october	-8796
▁mapurisa	-8797
▁ታ	-8798
opi	-8799
wee	-8800
▁አን	-8801
▁13,	-8802
▁iṣọ	-8803
▁zai	-8804
▁énɛ	-8805
▁ɛsɛ	-8806
dàájọ	-8807
gbèrè	-8808
hlazi	-8809
▁baki	-8810
▁kure	-8811
▁taoor	-8812
▁nthawi	-8813
▁tìtorí	-8814
▁àyípadà	-8815
zed	-8816
▁dɛ	-8817
kuni	-8818
lori	-8819
tàlá	-8820
ṣòwò	-8821
▁ega	-8822
▁inc	-8823
▁oga	-8824
lonke	-8825
▁ubwo	-8826
▁ǹkan	-8827
yalezo	-8828
▁sígbà	-8829
▁kubona	-8830
▁àìlera	-8831
▁iyebíye	-8832
▁mukombe	-8833
dínlógójì	-8834
▁imudojuiwọn	-8835
gogo	-8836
sárì	-8837
sítà	-8838
▁bay	-8839
▁mát	-8840
▁àsẹ	-8841
▁ngqo	-8842
▁tipẹ	-8843
▁usho	-8844
▁David	-8845
▁State	-8846
▁bwino	-8847
▁vatiwo	-8848
ingizimu	-8849
▁amathuba	-8850
▁patapata	-8851
▁Amaphoyisa	-8852
▁reZimbabwe	-8853
gga	-8854
ive	-8855
los	-8856
níà	-8857
zɔn	-8858
▁19.	-8859
▁osi	-8860
tando	-8861
▁dana	-8862
▁isra	-8863
▁kùnà	-8864
▁mapa	-8865
jikele	-8866
shauri	-8867
▁banki	-8868
▁ibẹrẹ	-8869
hupfumi	-8870
▁abubakar	-8871
▁kungenzeka	-8872
De	-8873
KA	-8874
cwe	-8875
▁80	-8876
less	-8877
▁sán	-8878
▁ụka	-8879
girai	-8880
▁kété	-8881
▁pípẹ	-8882
▁sõng	-8883
▁wemi	-8884
polisa	-8885
▁itaja	-8886
▁laaye	-8887
▁ìṣúra	-8888
▁Kabila	-8889
▁agbábọ	-8890
▁ngenyanga	-8891
sín	-8892
ciph	-8893
dwen	-8894
fiso	-8895
▁ithe	-8896
▁kubi	-8897
▁time	-8898
phondo	-8899
▁ìnira	-8900
tendaji	-8901
▁sangano	-8902
ádà	-8903
giji	-8904
▁Dan	-8905
▁indu	-8906
▁niba	-8907
▁ẹgbàá	-8908
▁makasi	-8909
▁nàíjíríà	-8910
▁politiki	-8911
▁ngaphansi	-8912
Ro	-8913
▁ዓመ	-8914
▁bye	-8915
▁iṣi	-8916
▁pọju	-8917
▁soab	-8918
▁iṣẹju	-8919
▁nanso	-8920
▁trump	-8921
tliziyo	-8922
▁lokuthi	-8923
▁olubori	-8924
cts	-8925
ẹrọ	-8926
▁45	-8927
▁Pu	-8928
▁eq	-8929
gqon	-8930
zvin	-8931
▁16,	-8932
▁Sin	-8933
▁gle	-8934
Funda	-8935
yinka	-8936
▁kplé	-8937
▁zazo	-8938
▁onimọ	-8939
▁àjàrà	-8940
tengesa	-8941
▁yaliyo	-8942
▁irúgbìn	-8943
phakamisa	-8944
▁njengokuba	-8945
jw	-8946
▁â	-8947
▁uri	-8948
asisi	-8949
▁bada	-8950
▁baso	-8951
▁táwa	-8952
▁alaṣẹ	-8953
▁gígùn	-8954
▁níkẹyìn	-8955
▁december	-8956
▁idaabobo	-8957
▁mpaghara	-8958
chwepheshe	-8959
▁ezahlukeneyo	-8960
▁iS	-8961
roye	-8962
▁hos	-8963
diyan	-8964
phaza	-8965
▁dènà	-8966
▁gudo	-8967
▁sezi	-8968
▁2018,	-8969
▁asoju	-8970
zalwane	-8971
▁charles	-8972
▁ololufẹ	-8973
▁ezimbini	-8974
rìndínlógún	-8975
▁ezinsukwini	-8976
ole	-8977
zun	-8978
drid	-8979
file	-8980
hùwà	-8981
many	-8982
ziva	-8983
▁pvc	-8984
▁sei	-8985
bengu	-8986
okuta	-8987
▁2011	-8988
▁wina	-8989
hlulela	-8990
▁France	-8991
▁abangu	-8992
▁onídàájọ	-8993
▁mc	-8994
kare	-8995
káyà	-8996
yoka	-8997
▁ṣàn	-8998
China	-8999
cinci	-9000
kànlé	-9001
ojumọ	-9002
▁beza	-9003
▁bile	-9004
▁léra	-9005
funeko	-9006
▁Mkazi	-9007
▁aarin	-9008
▁yomwe	-9009
▁gurukota	-9010
lɛn	-9011
dírẹ	-9012
▁ije	-9013
▁ome	-9014
▁ẹjẹ	-9015
muhla	-9016
▁Mata	-9017
▁azin	-9018
▁fèsì	-9019
▁ọrịa	-9020
public	-9021
▁ndiyo	-9022
▁Dodoma	-9023
▁mitambo	-9024
qhelekileyo	-9025
mò	-9026
ሰብ	-9027
lub	-9028
vis	-9029
▁90	-9030
didi	-9031
doko	-9032
teni	-9033
ying	-9034
▁Ihe	-9035
▁kuo	-9036
▁ìré	-9037
▁ísá	-9038
chain	-9039
▁dake	-9040
▁ibra	-9041
▁rọra	-9042
▁sigi	-9043
▁avuga	-9044
▁karun	-9045
▁banyere	-9046
▁isakoso	-9047
▁viongozi	-9048
IS	-9049
sv	-9050
▁ል	-9051
sso	-9052
dugu	-9053
▁19,	-9054
▁faa	-9055
▁neb	-9056
▁tõe	-9057
▁ɔbɛ	-9058
▁wiwa	-9059
▁ọtun	-9060
ongoro	-9061
▁haina	-9062
▁kuthe	-9063
▁Kristu	-9064
▁kọkànlá	-9065
▁sengathi	-9066
▁wachezaji	-9067
▁ehlabathini	-9068
dor	-9069
wis	-9070
▁tʋ	-9071
giza	-9072
▁uwa	-9073
dunhu	-9074
manda	-9075
balala	-9076
▁kwake	-9077
▁wenye	-9078
▁àtakò	-9079
▁àṣàrò	-9080
jwayele	-9081
▁zinazo	-9082
▁zvakan	-9083
IP	-9084
dra	-9085
▁eS	-9086
tyhi	-9087
▁22,	-9088
▁የሚያ	-9089
bande	-9090
panin	-9091
yìnwá	-9092
▁boba	-9093
▁iṣan	-9094
▁zake	-9095
▁buryo	-9096
▁ìdẹwò	-9097
▁ìrísí	-9098
tìlẹyìn	-9099
ongameli	-9100
vangirai	-9101
▁abamẹta	-9102
zvipatara	-9103
ሆኑ	-9104
anọ	-9105
▁pɔ	-9106
▁ጊዜ	-9107
gada	-9108
▁Ayi	-9109
▁oda	-9110
▁ọkà	-9111
▁jara	-9112
engiso	-9113
ganisa	-9114
▁2020,	-9115
▁mmiri	-9116
khumbula	-9117
Ga	-9118
gbɔ	-9119
▁kõ	-9120
lvani	-9121
rango	-9122
tloko	-9123
▁2010	-9124
anjalo	-9125
wesine	-9126
▁atọka	-9127
▁jàǹbá	-9128
▁venhau	-9129
▁ajakalẹ	-9130
▁zvekuti	-9131
▁Hospital	-9132
tọọ	-9133
huru	-9134
laka	-9135
lẹnu	-9136
linde	-9137
ríyìn	-9138
▁dire	-9139
▁okuyi	-9140
▁sawọn	-9141
▁america	-9142
▁oníṣòwò	-9143
ɩɩ	-9144
▁eo	-9145
▁17,	-9146
▁Ste	-9147
hanzi	-9148
phawu	-9149
shing	-9150
tembe	-9151
▁kale	-9152
▁ìjìyà	-9153
▁dzezve	-9154
▁ezingu	-9155
▁ntango	-9156
▁uhlelo	-9157
Ch	-9158
bui	-9159
▁ñu	-9160
keti	-9161
▁kìn	-9162
gqibo	-9163
penyu	-9164
▁fela	-9165
▁inda	-9166
▁lérò	-9167
▁yiye	-9168
▁àfojú	-9169
▁ìpamọ	-9170
▁afrika	-9171
▁nalowo	-9172
▁ndalama	-9173
dínláàádọ	-9174
phumelele	-9175
ic	-9176
▁ህ	-9177
▁ሕ	-9178
boa	-9179
luu	-9180
tẹẹ	-9181
wún	-9182
▁eva	-9183
▁noM	-9184
phumo	-9185
xhasa	-9186
▁nehu	-9187
▁paku	-9188
▁ababa	-9189
khundla	-9190
▁kapena	-9191
▁mukana	-9192
▁vasina	-9193
▁izithombe	-9194
-18	-9195
oka	-9196
páà	-9197
Juda	-9198
boka	-9199
suke	-9200
▁irẹ	-9201
▁ẹṣẹ	-9202
zvino	-9203
▁kikọ	-9204
▁mune	-9205
▁sizi	-9206
▁wenu	-9207
▁ìgbá	-9208
▁ṣoju	-9209
turage	-9210
▁Super	-9211
▁block	-9212
▁kutoa	-9213
▁mbili	-9214
▁nhasi	-9215
▁apẹẹrẹ	-9216
▁girama	-9217
▁panyaya	-9218
ụn	-9219
dàn	-9220
▁Nù	-9221
▁rì	-9222
dere	-9223
gizo	-9224
▁tar	-9225
▁òmù	-9226
jenge	-9227
▁olùfẹ	-9228
▁Kagame	-9229
▁Sports	-9230
▁opopona	-9231
ሁን	-9232
lyn	-9233
tat	-9234
yɛn	-9235
dédé	-9236
holo	-9237
qwen	-9238
resa	-9239
▁bio	-9240
▁ylɔ	-9241
tambu	-9242
▁Naje	-9243
▁best	-9244
▁kiba	-9245
okpuru	-9246
▁akuti	-9247
▁lingo	-9248
tionale	-9249
ǹtì	-9250
ዎችን	-9251
▁MT	-9252
▁ọbẹ	-9253
▁fani	-9254
mbamwe	-9255
▁àpáta	-9256
▁kyokka	-9257
fumaneka	-9258
▁kwalokho	-9259
▁ngezinto	-9260
▁ngesandla	-9261
▁University	-9262
díẹ	-9263
pla	-9264
xan	-9265
ọba	-9266
luku	-9267
▁ode	-9268
▁ìyẹ	-9269
▁dada	-9270
▁jóná	-9271
▁kudi	-9272
▁parọ	-9273
▁wawa	-9274
▁Ààrẹ	-9275
▁domin	-9276
▁imini	-9277
▁onínú	-9278
zimbeni	-9279
▁idatha	-9280
svangirai	-9281
UL	-9282
bli	-9283
gya	-9284
láé	-9285
▁Wọ	-9286
síbẹ	-9287
àánú	-9288
▁mbụ	-9289
pango	-9290
rànlọ	-9291
thinta	-9292
▁baako	-9293
kundano	-9294
▁Wenela	-9295
▁nítumọ	-9296
▁ogbeni	-9297
▁kuThixo	-9298
▁ezithile	-9299
▁laifọwọyi	-9300
▁ezindaweni	-9301
Nge	-9302
cdc	-9303
uug	-9304
▁eé	-9305
delo	-9306
ekoo	-9307
▁lɛɛ	-9308
▁doju	-9309
▁nkwa	-9310
▁ooru	-9311
mfihlo	-9312
tshona	-9313
▁Gọvanọ	-9314
▁pamene	-9315
▁zokugcina	-9316
▁ngaphezulu	-9317
usi	-9318
dede	-9319
hita	-9320
lopọ	-9321
▁Tra	-9322
▁kóló	-9323
▁níṣẹ	-9324
▁ziku	-9325
▁gbéra	-9326
▁Alisema	-9327
▁android	-9328
▁Nàíjíríà	-9329
▁ngoLwesithathu	-9330
rhu	-9331
jijì	-9332
yọri	-9333
zeli	-9334
lenye	-9335
▁Faso	-9336
▁muno	-9337
waanyị	-9338
▁Ebola	-9339
▁agban	-9340
▁nyere	-9341
▁adehun	-9342
▁havana	-9343
bingelelo	-9344
ɑn	-9345
ፍሪ	-9346
bet	-9347
thy	-9348
▁mù	-9349
buri	-9350
dákà	-9351
mizi	-9352
vuna	-9353
wisa	-9354
▁tee	-9355
landu	-9356
phefu	-9357
▁berɛ	-9358
▁bọlá	-9359
▁take	-9360
▁akaba	-9361
▁matsa	-9362
▁omijé	-9363
▁tangu	-9364
▁yezin	-9365
hlakalo	-9366
▁lórúkọ	-9367
▁social	-9368
▁ṣàkóbá	-9369
pamusoro	-9370
elo	-9371
weze	-9372
zeti	-9373
▁feb	-9374
mbewu	-9375
▁ayin	-9376
▁kufi	-9377
▁kuvu	-9378
▁wutu	-9379
▁Chris	-9380
▁msimu	-9381
▁Akukho	-9382
▁fàdákà	-9383
▁gbòòrò	-9384
dge	-9385
wei	-9386
baye	-9387
hayi	-9388
ving	-9389
▁wun	-9390
▁Ẹjọ	-9391
▁bane	-9392
▁eman	-9393
▁hivi	-9394
▁wabe	-9395
▁zote	-9396
▁forex	-9397
jenjalo	-9398
▁mamiri	-9399
mpumelelo	-9400
ši	-9401
ል፡፡	-9402
▁Rọ	-9403
▁St	-9404
▁tũ	-9405
yali	-9406
▁Azɔ	-9407
ẹtiwọ	-9408
▁aami	-9409
risira	-9410
▁chake	-9411
▁lakwa	-9412
▁àkójọ	-9413
▁nẹtiwọ	-9414
▁okuhle	-9415
▁ngoMgqibelo	-9416
▁kubalulekile	-9417
álì	-9418
ókù	-9419
▁lú	-9420
▁እስ	-9421
▁ይህ	-9422
▁bab	-9423
bunge	-9424
zenzo	-9425
▁atiku	-9426
▁ugbua	-9427
▁usuku	-9428
▁Assemb	-9429
▁láéláé	-9430
▁mdlali	-9431
tshintsha	-9432
▁ìṣàpẹẹrẹ	-9433
rou	-9434
zee	-9435
qaba	-9436
▁his	-9437
▁enze	-9438
▁erin	-9439
▁nabe	-9440
▁yema	-9441
▁fìgbà	-9442
▁Rights	-9443
▁yipada	-9444
▁lagbaye	-9445
▁àjàkálẹ	-9446
fen	-9447
ite	-9448
ánú	-9449
come	-9450
poti	-9451
riṣi	-9452
ṣowo	-9453
▁ọṣẹ	-9454
gomba	-9455
▁jiya	-9456
▁mẹjọ	-9457
▁solo	-9458
▁yọjú	-9459
gwagwa	-9460
ziwayo	-9461
▁Covid	-9462
▁Vamwe	-9463
▁fẹran	-9464
▁ṣàìsàn	-9465
bhadhara	-9466
▁kírísítì	-9467
fó	-9468
mle	-9469
ppe	-9470
wit	-9471
cker	-9472
isti	-9473
sowọ	-9474
▁Aid	-9475
▁Mbe	-9476
▁mmu	-9477
▁nii	-9478
bhale	-9479
jenzi	-9480
ramwa	-9481
▁july	-9482
▁lino	-9483
▁elina	-9484
▁onírẹ	-9485
profeti	-9486
▁nijọba	-9487
pfumbamwe	-9488
75	-9489
cco	-9490
▁Or	-9491
▁bĭ	-9492
lelọ	-9493
riri	-9494
sese	-9495
▁24,	-9496
▁ira	-9497
▁isọ	-9498
lumko	-9499
urban	-9500
▁nídè	-9501
▁puso	-9502
ishanu	-9503
▁awuye	-9504
▁gbèsè	-9505
▁Najeriya	-9506
ers	-9507
kye	-9508
www	-9509
keme	-9510
▁àto	-9511
hinde	-9512
kundi	-9513
sekho	-9514
sunga	-9515
wanya	-9516
▁bawa	-9517
▁sábẹ	-9518
▁tọju	-9519
lation	-9520
▁oluwo	-9521
▁gbígbà	-9522
▁ibùgbé	-9523
▁kugira	-9524
▁ìkórìíra	-9525
▁gbajugbaja	-9526
iya	-9527
iye	-9528
míì	-9529
ábù	-9530
ọbu	-9531
▁kè	-9532
▁xɛ	-9533
foni	-9534
léra	-9535
riko	-9536
sign	-9537
ziyo	-9538
▁28,	-9539
▁ají	-9540
inira	-9541
▁dabi	-9542
▁like	-9543
▁palẹ	-9544
▁ìkún	-9545
▁alára	-9546
▁àtọmọ	-9547
▁òmùgọ	-9548
cwadini	-9549
stralia	-9550
▁munthu	-9551
Warriors	-9552
▁ìṣòtítọ	-9553
▁enkantolo	-9554
▁ngamandla	-9555
▁CC	-9556
kiki	-9557
rílẹ	-9558
▁191	-9559
▁bai	-9560
▁ìfo	-9561
Natal	-9562
fóònù	-9563
kúnrẹ	-9564
▁mano	-9565
▁sowo	-9566
▁ucin	-9567
phutha	-9568
▁neChi	-9569
▁saaju	-9570
kwanise	-9571
▁arúgbó	-9572
▁Burkina	-9573
tandukanye	-9574
▁endleleni	-9575
45	-9576
▁ቢ	-9577
▁vì	-9578
doro	-9579
hare	-9580
qana	-9581
▁Lan	-9582
▁ide	-9583
▁ọma	-9584
▁ẹkùn	-9585
▁Bonke	-9586
▁benza	-9587
▁ifara	-9588
▁ipeni	-9589
ishonga	-9590
▁kaSirayeli	-9591
rɑ	-9592
Kun	-9593
maa	-9594
▁Mn	-9595
▁hẹ	-9596
bhan	-9597
ceku	-9598
qoba	-9599
wuni	-9600
▁Iin	-9601
genza	-9602
pindi	-9603
▁kuha	-9604
buyela	-9605
▁ibajẹ	-9606
▁kólósè	-9607
▁kúkúrú	-9608
▁loootọ	-9609
▁russia	-9610
▁ibrahim	-9611
YƐ	-9612
oge	-9613
oyo	-9614
▁epa	-9615
▁hai	-9616
▁kpa	-9617
▁láá	-9618
▁kare	-9619
▁tlaa	-9620
▁zobu	-9621
▁kanna	-9622
sombulu	-9623
▁batisí	-9624
▁polisi	-9625
cti	-9626
pem	-9627
tti	-9628
lade	-9629
musi	-9630
▁Khu	-9631
kohun	-9632
phala	-9633
▁esho	-9634
▁múni	-9635
yasema	-9636
▁ekolo	-9637
ẹnisọrọ	-9638
▁Soccer	-9639
▁mcimbi	-9640
▁nakuba	-9641
▁àgbèrè	-9642
▁ebusweni	-9643
▁ṣàkíyèsí	-9644
LC	-9645
ule	-9646
base	-9647
kwín	-9648
▁kɔn	-9649
▁ìdè	-9650
▁ìtà	-9651
koooo	-9652
▁káká	-9653
moodua	-9654
risana	-9655
▁Kepha	-9656
▁engena	-9657
▁mwenye	-9658
▁ṣàṣàrò	-9659
▁kubanga	-9660
▁ngakumbi	-9661
▁International	-9662
yn	-9663
ም።	-9664
iwu	-9665
▁bǐ	-9666
cono	-9667
dika	-9668
▁bom	-9669
▁pho	-9670
shuwa	-9671
▁papọ	-9672
banisa	-9673
▁fíìmù	-9674
▁india	-9675
▁inoti	-9676
▁iqela	-9677
▁kelen	-9678
▁umhla	-9679
▁àkàwé	-9680
tsigiri	-9681
tarajiwa	-9682
uzi	-9683
▁አገ	-9684
biki	-9685
reti	-9686
sing	-9687
tuku	-9688
wina	-9689
▁acɛ	-9690
▁agọ	-9691
▁nyo	-9692
ṣègùn	-9693
▁débẹ	-9694
▁enwe	-9695
fásítì	-9696
gonjwa	-9697
▁Zonke	-9698
▁baben	-9699
▁sunmọ	-9700
▁kulesi	-9701
▁olugbe	-9702
lwanyana	-9703
▁Sangano	-9704
bandakanya	-9705
26	-9706
PA	-9707
Xa	-9708
ney	-9709
fiya	-9710
lili	-9711
shun	-9712
tati	-9713
yira	-9714
▁Ezi	-9715
▁mum	-9716
▁mibu	-9717
hwehwɛ	-9718
▁nukun	-9719
▁okubi	-9720
dingeka	-9721
▁gihugu	-9722
▁sababu	-9723
▁UYehova	-9724
UM	-9725
ጀር	-9726
-16	-9727
▁iB	-9728
tigi	-9729
work	-9730
▁Wan	-9731
▁igo	-9732
▁dije	-9733
▁gape	-9734
tation	-9735
▁adamu	-9736
▁ganjí	-9737
chigaro	-9738
▁huduma	-9739
▁odindi	-9740
DE	-9741
bíà	-9742
aneo	-9743
qoph	-9744
zona	-9745
▁dwa	-9746
▁lóò	-9747
gango	-9748
khadi	-9749
▁mita	-9750
▁Patri	-9751
▁tààrà	-9752
▁yemwe	-9753
▁Champi	-9754
▁tórúkọ	-9755
▁labantu	-9756
▁ṣàpẹẹrẹ	-9757
▁ṣàtúnṣe	-9758
phelileyo	-9759
▁technology	-9760
ER	-9761
PR	-9762
nọ	-9763
▁65	-9764
jonga	-9765
▁baze	-9766
▁beli	-9767
▁izwe	-9768
▁some	-9769
▁ẹkún	-9770
▁ahodoɔ	-9771
▁isinmi	-9772
▁olóṣèlú	-9773
liziyweni	-9774
▁kwenyika	-9775
▁lingomba	-9776
▁ngokushesha	-9777
HO	-9778
ቱን	-9779
▁ê	-9780
ụzọ	-9781
ople	-9782
▁fọn	-9783
▁woa	-9784
gharị	-9785
▁Benɛ	-9786
▁mabo	-9787
▁neve	-9788
cazelo	-9789
eneral	-9790
lisela	-9791
▁ubuso	-9792
▁ukukhu	-9793
▁yavuze	-9794
▁ọgọrun	-9795
▁bụrụkwa	-9796
tombazane	-9797
▁kwambiri	-9798
ትን	-9799
Aku	-9800
blo	-9801
ith	-9802
▁48	-9803
▁hɛ	-9804
lusi	-9805
veze	-9806
▁cro	-9807
▁iim	-9808
▁iqa	-9809
▁atɔn	-9810
▁tõog	-9811
kwakha	-9812
wanikwa	-9813
▁ìṣègùn	-9814
▁ṣayẹwo	-9815
▁science	-9816
▁olómìnira	-9817
soɔ	-9818
ste	-9819
nika	-9820
risí	-9821
tálì	-9822
▁wɔa	-9823
▁ọfẹ	-9824
mbile	-9825
rélíà	-9826
senza	-9827
▁mgba	-9828
▁pele	-9829
▁yege	-9830
▁abasa	-9831
▁lasan	-9832
▁lootọ	-9833
▁otitọ	-9834
▁sithi	-9835
▁àdírẹ	-9836
▁imeeli	-9837
khangele	-9838
▁ipenija	-9839
sombuluko	-9840
▁nẹtiwọki	-9841
▁ibaraẹnisọrọ	-9842
37	-9843
▁ና	-9844
dli	-9845
mín	-9846
rya	-9847
tíà	-9848
ńtí	-9849
▁እየ	-9850
hábù	-9851
pool	-9852
yoku	-9853
▁seo	-9854
gwaqo	-9855
tẹkun	-9856
▁kimi	-9857
▁zuwa	-9858
▁zvis	-9859
▁ṣíṣà	-9860
chuano	-9861
▁amafa	-9862
▁idile	-9863
▁imizi	-9864
▁yenza	-9865
National	-9866
▁cyangwa	-9867
▁iṣeduro	-9868
▁nchekwa	-9869
▁gbóríyìn	-9870
lungiselela	-9871
▁ukuqinisekisa	-9872
cks	-9873
tur	-9874
yya	-9875
▁Tó	-9876
kuro	-9877
sira	-9878
shisa	-9879
▁akpa	-9880
▁besa	-9881
▁fami	-9882
▁gbóò	-9883
▁jálẹ	-9884
▁kɔrɔ	-9885
iswano	-9886
▁enhle	-9887
▁kiuug	-9888
▁olùṣà	-9889
▁sɛnea	-9890
khulume	-9891
▁inkqubo	-9892
▁karibuni	-9893
khasimende	-9894
tàdínlógún	-9895
ZI	-9896
gl	-9897
▁pò	-9898
cube	-9899
lákà	-9900
sera	-9901
yiri	-9902
▁21.	-9903
▁elɔ	-9904
▁emo	-9905
▁iti	-9906
▁ẹwẹ	-9907
china	-9908
tetho	-9909
▁kwuo	-9910
▁lẹsẹ	-9911
▁real	-9912
▁vema	-9913
▁ààbọ	-9914
▁መንግሥ	-9915
siness	-9916
vikela	-9917
yenera	-9918
▁party	-9919
▁aláìmọ	-9920
▁farisí	-9921
▁olorin	-9922
enderera	-9923
▁ministre	-9924
▁ṣàǹfààní	-9925
ድር	-9926
kta	-9927
spe	-9928
▁አል	-9929
kabi	-9930
koze	-9931
ller	-9932
rale	-9933
▁23.	-9934
▁FCC	-9935
▁ọṣọ	-9936
shana	-9937
▁Rama	-9938
▁fila	-9939
▁kamẹ	-9940
▁kíkó	-9941
▁lime	-9942
▁colle	-9943
▁yanju	-9944
▁ethile	-9945
▁iindlela	-9946
▁koonyana	-9947
▁ukuphila	-9948
▁ohunkohun	-9949
Ra	-9950
ZAN	-9951
▁dù	-9952
arch	-9953
guye	-9954
lukú	-9955
rane	-9956
rine	-9957
fuman	-9958
light	-9959
mbiso	-9960
▁dupẹ	-9961
▁fọto	-9962
▁kwimi	-9963
▁oloro	-9964
▁awuyewuye	-9965
▁ọmọkunrin	-9966
ari	-9967
▁38	-9968
▁Ah	-9969
bong	-9970
dára	-9971
▁Olu	-9972
▁juu	-9973
▁àká	-9974
▁òwò	-9975
▁coun	-9976
▁zona	-9977
kumana	-9978
▁mboma	-9979
▁ọmọlú	-9980
▁bùkátà	-9981
▁ngeenxa	-9982
99	-9983
zz	-9984
Ubu	-9985
bba	-9986
▁55	-9987
▁hy	-9988
mama	-9989
mere	-9990
pade	-9991
saló	-9992
▁kuu	-9993
ranye	-9994
zinyo	-9995
▁dénú	-9996
▁pati	-9997
▁shan	-9998
fowabo	-9999
phando	-10000
▁abaku	-10001
▁ayisi	-10002
▁fòfin	-10003
▁willi	-10004
gunjale	-10005
▁baadhi	-10006
▁dukplɔ	-10007
▁mọlẹbi	-10008
▁pointi	-10009
▁vakuru	-10010
▁ṣàdédé	-10011
gbodiyan	-10012
▁démocrati	-10013
21	-10014
cher	-10015
ekwu	-10016
lema	-10017
▁cam	-10018
▁oli	-10019
modzi	-10020
▁bisi	-10021
▁idun	-10022
▁lake	-10023
▁tatu	-10024
▁umzi	-10025
hlukan	-10026
tandao	-10027
▁eroja	-10028
▁kọwara	-10029
▁nevanhu	-10030
▁izinsuku	-10031
▁ngokusebenzisa	-10032
ayé	-10033
lah	-10034
tsu	-10035
bawo	-10036
▁Otu	-10037
▁adú	-10038
▁ajá	-10039
▁nsu	-10040
▁ìsá	-10041
lling	-10042
phath	-10043
yenda	-10044
▁ncdc	-10045
▁noko	-10046
▁tàbi	-10047
▁wɛɛn	-10048
luleka	-10049
▁isise	-10050
▁ṣetan	-10051
▁kérésì	-10052
▁saraki	-10053
▁ṣèpinnu	-10054
▁emithathu	-10055
▁idaniloju	-10056
Isa	-10057
ghi	-10058
▁በሚ	-10059
tìjú	-10060
▁dzo	-10061
▁jam	-10062
fauti	-10063
bonelo	-10064
jalisa	-10065
mfundo	-10066
veliso	-10067
▁Peter	-10068
▁ìtòlẹ	-10069
bhekise	-10070
▁agbabọ	-10071
▁pasitọ	-10072
▁kọkanla	-10073
▁àfojúsùn	-10074
lc	-10075
በረ	-10076
▁ɖí	-10077
more	-10078
▁22.	-10079
▁avu	-10080
▁mzi	-10081
▁ìda	-10082
tokea	-10083
▁Siya	-10084
▁ìyàn	-10085
fakazi	-10086
▁james	-10087
▁ndivo	-10088
▁Koloni	-10089
▁dzimwe	-10090
▁ehamba	-10091
salóníkà	-10092
▁yunifásítì	-10093
',	-10094
asa	-10095
cob	-10096
sɛn	-10097
hani	-10098
meji	-10099
qobo	-10100
▁Mba	-10101
tunṣe	-10102
▁Mare	-10103
▁nírú	-10104
▁sẹni	-10105
▁wari	-10106
gerian	-10107
▁Kgosi	-10108
▁elowo	-10109
▁oníṣẹ	-10110
▁pẹlẹbẹ	-10111
▁zvichitevera	-10112
Or	-10113
wka	-10114
Unga	-10115
onna	-10116
wang	-10117
ṣágà	-10118
▁APC	-10119
▁dún	-10120
▁እንዳ	-10121
dzisa	-10122
hluku	-10123
konze	-10124
▁lesa	-10125
▁ligi	-10126
▁nsɛm	-10127
▁produ	-10128
▁watan	-10129
▁tipasẹ	-10130
▁òyìnbó	-10131
▁òǹkàwé	-10132
▁ọsirélíà	-10133
eza	-10134
now	-10135
rad	-10136
▁tã	-10137
lsea	-10138
tola	-10139
tútù	-10140
zika	-10141
▁23,	-10142
▁Ham	-10143
▁odu	-10144
▁ẹda	-10145
bhozo	-10146
mputa	-10147
renge	-10148
▁gusu	-10149
▁jake	-10150
▁lede	-10151
▁loka	-10152
▁yiyi	-10153
▁latari	-10154
▁svondo	-10155
▁amọtẹkun	-10156
ለን	-10157
▁ሃ	-10158
elu	-10159
sse	-10160
▁yě	-10161
tako	-10162
teza	-10163
yeka	-10164
zịrị	-10165
▁lát	-10166
▁ozo	-10167
▁egbò	-10168
▁ikho	-10169
▁ọnwa	-10170
United	-10171
khange	-10172
ongoza	-10173
▁ríran	-10174
▁wanga	-10175
▁Malawi	-10176
▁kubika	-10177
▁tijọba	-10178
▁wɛɛngẽ	-10179
rukọsilẹ	-10180
▁kuramba	-10181
▁ụgbọala	-10182
▁february	-10183
▁imithetho	-10184
▁ngoLwesihlanu	-10185
kã	-10186
xt	-10187
gxi	-10188
klo	-10189
tùú	-10190
labo	-10191
▁any	-10192
▁mbọ	-10193
▁èsì	-10194
downs	-10195
▁khan	-10196
▁lẹta	-10197
▁nipo	-10198
▁zino	-10199
ishiya	-10200
▁benze	-10201
▁kabla	-10202
▁okuva	-10203
▁paris	-10204
▁wádìí	-10205
▁àdánù	-10206
mntwana	-10207
zindaba	-10208
▁elithi	-10209
▁kaduna	-10210
▁gbajúmọ	-10211
kpà	-10212
mka	-10213
ppa	-10214
urs	-10215
▁..	-10216
▁gù	-10217
▁xi	-10218
▁eƒe	-10219
▁nyì	-10220
▁twe	-10221
inali	-10222
sanjọ	-10223
▁Kasi	-10224
▁paul	-10225
▁sami	-10226
▁yika	-10227
adcast	-10228
▁alobi	-10229
▁hlobo	-10230
▁oluko	-10231
▁pomwe	-10232
khangiso	-10233
▁alátakò	-10234
▁mutambo	-10235
▁ngokunga	-10236
abi	-10237
eld	-10238
top	-10239
yɛɛ	-10240
rnin	-10241
▁des	-10242
tsina	-10243
▁high	-10244
komiti	-10245
▁isoro	-10246
▁kwezo	-10247
▁tower	-10248
▁nísàlẹ	-10249
▁ngokuzi	-10250
▁pachena	-10251
▁igbeyewo	-10252
▁tẹsalóníkà	-10253
nc	-10254
ስተ	-10255
rón	-10256
wal	-10257
anan	-10258
diso	-10259
mila	-10260
peza	-10261
▁ìnà	-10262
Sonto	-10263
gulwa	-10264
lobal	-10265
tonga	-10266
zansi	-10267
▁gbaa	-10268
▁mada	-10269
▁nale	-10270
▁wawo	-10271
thambo	-10272
▁kẹwaa	-10273
▁lithi	-10274
▁seyin	-10275
▁yenye	-10276
buyisela	-10277
▁amerika	-10278
▁milioni	-10279
▁oníṣègùn	-10280
▁rogbodiyan	-10281
29	-10282
ml	-10283
ሉ።	-10284
ንያ	-10285
kla	-10286
jide	-10287
kasi	-10288
mole	-10289
▁bọọ	-10290
▁maj	-10291
▁mbi	-10292
▁òtò	-10293
ctors	-10294
▁biyu	-10295
▁eneo	-10296
▁neMu	-10297
▁yani	-10298
thethi	-10299
▁Funda	-10300
▁rimwe	-10301
▁unoku	-10302
shayeli	-10303
▁Donald	-10304
▁agbala	-10305
▁mosala	-10306
▁sukulu	-10307
▁system	-10308
tshabala	-10309
vumelana	-10310
▁alikuwa	-10311
fanyabiashara	-10312
bán	-10313
fai	-10314
▁ከተ	-10315
▁ጉዳ	-10316
hang	-10317
zuro	-10318
▁iha	-10319
▁ren	-10320
bisha	-10321
inika	-10322
mvura	-10323
▁egbo	-10324
▁enge	-10325
▁fede	-10326
▁ikpe	-10327
Chiefs	-10328
▁elect	-10329
▁gigun	-10330
▁orílè	-10331
ínísítà	-10332
▁images	-10333
▁ibandla	-10334
▁inkampani	-10335
kàndínlógún	-10336
ghu	-10337
ámù	-10338
ĩna	-10339
daro	-10340
kami	-10341
kẹrẹ	-10342
▁uYo	-10343
▁Ọlọ	-10344
▁Alli	-10345
▁game	-10346
▁paka	-10347
▁wɔwɔ	-10348
miselo	-10349
▁ewúrẹ	-10350
▁kuloo	-10351
▁kígbe	-10352
▁ounje	-10353
ongorora	-10354
▁ushindi	-10355
▁kwakunye	-10356
▁msebenzi	-10357
33	-10358
▁ù	-10359
lem	-10360
ፍሪቃ	-10361
ẽnd	-10362
▁--	-10363
gbun	-10364
resi	-10365
▁May	-10366
▁kod	-10367
▁nkɔ	-10368
▁lile	-10369
▁mpya	-10370
▁ìbọn	-10371
tekele	-10372
zileyo	-10373
▁Nanso	-10374
▁atúmọ	-10375
▁jihar	-10376
▁kuone	-10377
chishan	-10378
hlakani	-10379
▁Mwenye	-10380
▁kuwana	-10381
▁kánádà	-10382
▁ndinga	-10383
▁ìbátan	-10384
▁panṣágà	-10385
▁léraléra	-10386
isebenzisa	-10387
▁VaEmmerson	-10388
▁ሥ	-10389
aku	-10390
gam	-10391
▁fú	-10392
▁nj	-10393
rolo	-10394
titu	-10395
tors	-10396
▁arẹ	-10397
▁live	-10398
▁ogbo	-10399
▁seli	-10400
matari	-10401
▁míràn	-10402
▁ìdálẹ	-10403
tangaje	-10404
▁nalapho	-10405
▁download	-10406
▁esikhulu	-10407
▁eThekwini	-10408
▁ngoLwesine	-10409
lị	-10410
sai	-10411
yam	-10412
godi	-10413
milọ	-10414
ssan	-10415
▁Den	-10416
▁eke	-10417
yenze	-10418
▁enia	-10419
▁lobu	-10420
▁zedi	-10421
honasi	-10422
▁ngaso	-10423
▁Health	-10424
▁kushin	-10425
▁ọlọgbọ	-10426
zwelonke	-10427
▁asiwaju	-10428
▁itọsọna	-10429
▁musulumi	-10430
▁tẹlifóònù	-10431
28	-10432
▁ዉ	-10433
Fil	-10434
efa	-10435
lée	-10436
par	-10437
ụta	-10438
▁aj	-10439
kpɔn	-10440
timi	-10441
yizi	-10442
yyar	-10443
▁Har	-10444
▁VaG	-10445
▁bose	-10446
▁ekwe	-10447
▁hili	-10448
yèméjì	-10449
▁2017,	-10450
▁gbójú	-10451
▁gwara	-10452
▁Abanye	-10453
▁watsho	-10454
▁mkutano	-10455
▁nationale	-10456
▁eYerusalem	-10457
àjò	-10458
áyà	-10459
ụka	-10460
▁uC	-10461
illa	-10462
lánẹ	-10463
ones	-10464
yeza	-10465
▁fri	-10466
lambo	-10467
mango	-10468
péènì	-10469
wenze	-10470
wethu	-10471
▁bíbí	-10472
▁gani	-10473
▁waze	-10474
funayo	-10475
gabeni	-10476
▁Black	-10477
▁Ìjọba	-10478
▁michezo	-10479
▁vatambi	-10480
▁Mahakama	-10481
▁michuano	-10482
kuta	-10483
mobi	-10484
wake	-10485
wood	-10486
rique	-10487
▁simo	-10488
▁wote	-10489
furika	-10490
pitali	-10491
ṣekúṣe	-10492
▁kãnga	-10493
konzera	-10494
▁akọrin	-10495
▁ncwadi	-10496
isebenza	-10497
▁àfiyèsí	-10498
▁lómìnira	-10499
▁emzimbeni	-10500
▁blockchain	-10501
▁ìdúróṣinṣin	-10502
ርት	-10503
ታት	-10504
cen	-10505
clo	-10506
ksz	-10507
bura	-10508
níjà	-10509
pẹrẹ	-10510
raka	-10511
ráyà	-10512
tore	-10513
tube	-10514
▁Col	-10515
getsi	-10516
▁zima	-10517
dzimwe	-10518
tokana	-10519
▁adali	-10520
▁òṣùpá	-10521
▁kufara	-10522
▁lorukọ	-10523
▁satide	-10524
▁gbajumọ	-10525
▁zvakare	-10526
▁olùjọsìn	-10527
▁yobamoodua	-10528
zie	-10529
qeni	-10530
▁iyì	-10531
▁ter	-10532
gendo	-10533
kigbà	-10534
mọran	-10535
wọnsẹ	-10536
▁Azam	-10537
braham	-10538
pikisa	-10539
tshini	-10540
▁Kukho	-10541
▁Vanhu	-10542
▁ireti	-10543
▁abajade	-10544
▁sokuthi	-10545
▁àbójútó	-10546
▁nabantwana	-10547
bul	-10548
wela	-10549
chete	-10550
gange	-10551
▁gbìn	-10552
▁jẹjẹ	-10553
▁láìjẹ	-10554
▁wajen	-10555
▁mhlawu	-10556
▁mmienu	-10557
▁dwumadie	-10558
▁igbasilẹ	-10559
▁okukhulu	-10560
▁Zo	-10561
vere	-10562
zina	-10563
▁24.	-10564
▁cyo	-10565
▁war	-10566
▁kóra	-10567
▁nípò	-10568
▁yiyo	-10569
▁2017.	-10570
▁akayi	-10571
▁lwesi	-10572
▁ukufa	-10573
lonyeni	-10574
▁gbígbó	-10575
▁ṣàwárí	-10576
▁gbadura	-10577
▁iimpawu	-10578
▁rikoooo	-10579
▁ufumane	-10580
tungamira	-10581
▁intliziyo	-10582
▁yategeezezza	-10583
▁cryptocurrency	-10584
ርስ	-10585
wọde	-10586
▁njẹ	-10587
Zonke	-10588
bhaka	-10589
gwana	-10590
kporo	-10591
▁buwọ	-10592
▁engo	-10593
▁isen	-10594
▁nọrọ	-10595
▁tuun	-10596
▁zime	-10597
khanka	-10598
▁Etats	-10599
▁akurẹ	-10600
▁elise	-10601
▁goolu	-10602
▁kínní	-10603
▁ìkórè	-10604
landele	-10605
▁Wilaya	-10606
▁sípéènì	-10607
akhawunti	-10608
▁agbabọọlu	-10609
▁oriṣiriṣi	-10610
00.	-10611
ero	-10612
etọ	-10613
lot	-10614
jado	-10615
mpyu	-10616
wura	-10617
ẹnti	-10618
▁far	-10619
▁osù	-10620
lonje	-10621
xholo	-10622
zidan	-10623
▁Bato	-10624
▁iwon	-10625
ighlan	-10626
khupha	-10627
stitute	-10628
▁engama	-10629
▁irinajo	-10630
▁biashara	-10631
US	-10632
ip	-10633
Isi	-10634
ami	-10635
rah	-10636
▁SA	-10637
ffic	-10638
vern	-10639
▁nwə	-10640
▁pàà	-10641
ekiti	-10642
isulu	-10643
khiwa	-10644
pande	-10645
ransa	-10646
▁Kuya	-10647
▁binu	-10648
▁kàyé	-10649
▁meng	-10650
▁pali	-10651
▁pili	-10652
▁awali	-10653
ciphisa	-10654
▁ifijiṣẹ	-10655
▁nangoku	-10656
shandiswa	-10657
▁ebantwini	-10658
ebu	-10659
▁Yɛ	-10660
daju	-10661
dina	-10662
duzi	-10663
mart	-10664
sebe	-10665
zere	-10666
anzia	-10667
panda	-10668
▁come	-10669
▁pani	-10670
▁work	-10671
▁yell	-10672
hlango	-10673
nyango	-10674
▁fóònù	-10675
▁karùn	-10676
▁ìtúmọ	-10677
verpool	-10678
▁School	-10679
▁aseyori	-10680
▁mitengo	-10681
▁ominira	-10682
▁kulindeleke	-10683
nda	-10684
chie	-10685
fumu	-10686
kizi	-10687
koli	-10688
lone	-10689
rise	-10690
tary	-10691
yame	-10692
▁khu	-10693
hlula	-10694
lẹgbẹ	-10695
páàdì	-10696
▁Hara	-10697
▁arin	-10698
▁auto	-10699
▁yize	-10700
▁yɛrɛ	-10701
▁alága	-10702
▁elide	-10703
▁gbèjà	-10704
▁sango	-10705
dwendwe	-10706
▁gẹgẹbi	-10707
▁àtọmọdọ	-10708
▁ìpolongo	-10709
bulamatari	-10710
▁Mwenyekiti	-10711
▁esiphezulu	-10712
TA	-10713
kə	-10714
eneo	-10715
llow	-10716
qoqo	-10717
▁Bri	-10718
▁Tha	-10719
▁fɔn	-10720
▁àbẹ	-10721
▁ውስጥ	-10722
Wathi	-10723
khule	-10724
thaka	-10725
▁acha	-10726
▁faye	-10727
▁jama	-10728
▁kata	-10729
▁rírẹ	-10730
símímọ	-10731
vamile	-10732
▁group	-10733
version	-10734
▁iqembu	-10735
hlaselwa	-10736
shington	-10737
▁Chineke	-10738
▁Council	-10739
▁kangaka	-10740
▁kutaura	-10741
▁william	-10742
IC	-10743
▁86	-10744
indi	-10745
kìtì	-10746
▁21,	-10747
▁atɔ	-10748
▁cen	-10749
▁fọọ	-10750
dzana	-10751
zambi	-10752
▁anim	-10753
▁bill	-10754
▁mkpa	-10755
▁wíwo	-10756
▁Bathi	-10757
▁anesi	-10758
gqongqo	-10759
sinbajo	-10760
vumenti	-10761
▁alaafin	-10762
▁tshwane	-10763
▁ngoMsombuluko	-10764
▁ẹẹ	-10765
hemu	-10766
igbi	-10767
rimo	-10768
▁oso	-10769
▁ìfò	-10770
benza	-10771
▁2000	-10772
▁agbọ	-10773
▁play	-10774
▁sobu	-10775
▁tówé	-10776
▁esika	-10777
▁ibiti	-10778
▁uyazi	-10779
▁lapapọ	-10780
▁umyeni	-10781
▁iqiniso	-10782
▁tofauti	-10783
▁vanodarika	-10784
ጠቀ	-10785
▁ሀ	-10786
gxe	-10787
mir	-10788
wii	-10789
▁eT	-10790
damu	-10791
deli	-10792
kusa	-10793
mpen	-10794
ruwa	-10795
▁zɔn	-10796
yensi	-10797
▁káwa	-10798
dinlaa	-10799
rongba	-10800
rónómì	-10801
▁gbóná	-10802
▁lwama	-10803
▁alhaji	-10804
▁àpáàdì	-10805
▁láfikún	-10806
▁tlhalosa	-10807
▁esikoleni	-10808
En	-10809
hip	-10810
▁26,	-10811
▁ìsẹ	-10812
letse	-10813
▁Waye	-10814
▁kemi	-10815
▁wíwà	-10816
▁yazo	-10817
▁zizi	-10818
▁kucha	-10819
▁láìní	-10820
batsiro	-10821
utarónómì	-10822
▁kwenzeke	-10823
▁Commission	-10824
Za	-10825
▁ፍ	-10826
dam	-10827
qho	-10828
ɔne	-10829
▁Sé	-10830
▁ጋር	-10831
kona	-10832
lódé	-10833
sódù	-10834
tiwa	-10835
wera	-10836
▁ber	-10837
▁out	-10838
▁Èkó	-10839
gqiba	-10840
ziswa	-10841
▁Bank	-10842
▁jẹbi	-10843
▁lawu	-10844
▁libo	-10845
▁saka	-10846
▁suku	-10847
▁yose	-10848
fumene	-10849
▁lwabo	-10850
▁Durban	-10851
▁komiti	-10852
▁kubera	-10853
▁mutane	-10854
▁tabili	-10855
▁gbajumo	-10856
▁ìdáríjì	-10857
▁ukudlala	-10858
▁Président	-10859
ɛɛ	-10860
ning	-10861
quke	-10862
▁Cho	-10863
▁avɔ	-10864
cture	-10865
▁jina	-10866
▁sani	-10867
kataba	-10868
▁gbájú	-10869
▁kwana	-10870
▁mwezi	-10871
▁eyodwa	-10872
▁òpìtàn	-10873
▁efanayo	-10874
▁vanonzi	-10875
▁Alliance	-10876
bịa	-10877
lor	-10878
álẹ	-10879
▁kg	-10880
luki	-10881
uman	-10882
▁25.	-10883
▁ìsí	-10884
▁ọdẹ	-10885
lenge	-10886
tsogo	-10887
tunde	-10888
▁jèrè	-10889
▁loke	-10890
▁orun	-10891
▁títa	-10892
▁wiwo	-10893
kísódù	-10894
▁abebe	-10895
▁ìṣeré	-10896
kwandisa	-10897
▁Burkĩna	-10898
▁Indlela	-10899
tholakale	-10900
▁ezingama	-10901
▁igbalode	-10902
▁ìgbéraga	-10903
▁Ngesikhathi	-10904
▁diutarónómì	-10905
bwi	-10906
qan	-10907
▁Ii	-10908
Cast	-10909
onye	-10910
▁del	-10911
▁kaM	-10912
▁walo	-10913
▁yenu	-10914
▁zesi	-10915
▁ziyi	-10916
kraine	-10917
▁bọọlu	-10918
▁fiimu	-10919
phumele	-10920
▁akaita	-10921
▁imibuzo	-10922
▁abalandeli	-10923
▁Development	-10924
lazi	-10925
ness	-10926
pela	-10927
▁iga	-10928
▁ore	-10929
▁thi	-10930
▁òdò	-10931
pheli	-10932
vavan	-10933
▁ayan	-10934
▁bãng	-10935
▁ekha	-10936
▁ibyo	-10937
▁kolo	-10938
▁lefa	-10939
▁mhla	-10940
▁pana	-10941
▁sisa	-10942
▁suna	-10943
▁undi	-10944
ongolo	-10945
▁fẹsun	-10946
▁guusu	-10947
▁laisi	-10948
▁paapa	-10949
qophiso	-10950
▁design	-10951
▁Magazine	-10952
▁yindlela	-10953
▁rubatsiro	-10954
▁ekupheleni	-10955
▁amaSirayeli	-10956
▁umbingeleli	-10957
▁ngokupheleleyo	-10958
ቀር	-10959
azɔ	-10960
▁gə	-10961
▁አለ	-10962
achị	-10963
ille	-10964
opia	-10965
àájú	-10966
▁adá	-10967
▁jlo	-10968
▁yɩɩ	-10969
hlane	-10970
landi	-10971
pungu	-10972
tsadi	-10973
▁Ngen	-10974
▁kẹfà	-10975
▁sena	-10976
▁taab	-10977
thinte	-10978
▁akụkọ	-10979
▁gbáko	-10980
▁naban	-10981
▁ubone	-10982
▁waati	-10983
▁alaabo	-10984
▁bafuna	-10985
▁mutemo	-10986
mpendulo	-10987
▁zvakanyanya	-10988
▁kusanganisira	-10989
▁ፕ	-10990
gizi	-10991
onya	-10992
▁gụn	-10993
bhite	-10994
gency	-10995
látíà	-10996
mbiro	-10997
▁Moro	-10998
▁hapo	-10999
▁koja	-11000
▁nnyo	-11001
▁àràá	-11002
▁ṣèbẹ	-11003
caleni	-11004
fthiwe	-11005
▁motor	-11006
▁okoja	-11007
▁atunse	-11008
▁eagles	-11009
▁kunzwa	-11010
garagaza	-11011
▁zvekare	-11012
cwangciso	-11013
▁Marekani	-11014
▁ìyàsímímọ	-11015
47	-11016
YA	-11017
ጀመ	-11018
ግሞ	-11019
mya	-11020
▁ON	-11021
anar	-11022
inea	-11023
meke	-11024
saru	-11025
tanú	-11026
▁Eng	-11027
▁Hou	-11028
▁age	-11029
khoyo	-11030
kumbu	-11031
▁here	-11032
▁sira	-11033
zhonga	-11034
xalenye	-11035
▁nnwuma	-11036
▁wiwọle	-11037
▁kipindi	-11038
▁tinyere	-11039
▁ekutheni	-11040
▁namandla	-11041
hí	-11042
▁ã	-11043
cor	-11044
▁ọh	-11045
▁30,	-11046
▁Kwe	-11047
▁kpò	-11048
▁ɔha	-11049
bintu	-11050
kokin	-11051
thixo	-11052
thuli	-11053
▁leen	-11054
▁rírí	-11055
▁ọgwụ	-11056
hamisa	-11057
ombolo	-11058
▁Korea	-11059
▁dagba	-11060
▁eyiti	-11061
▁lagos	-11062
▁oluda	-11063
▁takun	-11064
▁thata	-11065
▁zvavo	-11066
chokera	-11067
philayo	-11068
▁kopesa	-11069
▁mdziko	-11070
▁mitano	-11071
▁nemari	-11072
▁tóótun	-11073
shintsha	-11074
▁bayyana	-11075
▁nhyehyɛ	-11076
▁VaMugabe	-11077
On	-11078
law	-11079
rip	-11080
vhi	-11081
ɑrɑ	-11082
bedi	-11083
eshi	-11084
kins	-11085
meme	-11086
quma	-11087
sian	-11088
▁hen	-11089
▁oza	-11090
▁who	-11091
,000.	-11092
thana	-11093
▁Boko	-11094
▁babi	-11095
▁bibi	-11096
▁dama	-11097
▁tswa	-11098
▁xomɛ	-11099
▁Wonke	-11100
▁ahmed	-11101
▁ejele	-11102
▁iyatọ	-11103
▁multi	-11104
Filisti	-11105
▁mikolo	-11106
▁sẹnetọ	-11107
▁ɲɛmɔgɔ	-11108
zambique	-11109
▁igbadun	-11110
▁kutanga	-11111
▁agbekalẹ	-11112
▁dáradára	-11113
▁ezulwini	-11114
▁ọmọnìyàn	-11115
hirizhonga	-11116
lda	-11117
wor	-11118
▁uE	-11119
fata	-11120
gati	-11121
riba	-11122
rini	-11123
ston	-11124
sịrị	-11125
tobi	-11126
▁gya	-11127
▁maọ	-11128
▁nsi	-11129
ddeko	-11130
kusho	-11131
risha	-11132
tsika	-11133
▁firi	-11134
▁teng	-11135
▁ṣàrà	-11136
thanga	-11137
▁Ngaba	-11138
▁chama	-11139
▁iṣiro	-11140
▁nakwi	-11141
▁uMnuz	-11142
▁ìpilẹ	-11143
▁ítálì	-11144
tuliaka	-11145
▁maeneo	-11146
▁yowiki	-11147
▁ńláńlá	-11148
▁alaroye	-11149
▁bakwazi	-11150
▁enkundleni	-11151
FC	-11152
bri	-11153
ẹri	-11154
ango	-11155
busa	-11156
feni	-11157
gypt	-11158
musa	-11159
qulu	-11160
▁ìwú	-11161
▁አንድ	-11162
tyebi	-11163
zwana	-11164
ìwòye	-11165
▁Tida	-11166
▁lóṣù	-11167
▁okan	-11168
▁ìkan	-11169
dzimba	-11170
thwalo	-11171
▁kanje	-11172
▁okuse	-11173
▁sunwọ	-11174
▁òtòṣì	-11175
kambani	-11176
▁kiakia	-11177
▁webato	-11178
▁kampeni	-11179
▁sikhathi	-11180
ighlanders	-11181
▁Mutauriri	-11182
sebenzisana	-11183
Pro	-11184
oke	-11185
▁Kò	-11186
▁yĩ	-11187
hali	-11188
qeda	-11189
ãmba	-11190
▁Nke	-11191
▁kua	-11192
▁kud	-11193
▁kwɛ	-11194
▁tʋʋ	-11195
ANZAN	-11196
qhamo	-11197
▁bàjẹ	-11198
▁járí	-11199
▁kɛra	-11200
▁madu	-11201
▁níye	-11202
ànìyàn	-11203
▁Human	-11204
▁bawọn	-11205
▁monga	-11206
▁unina	-11207
ingakho	-11208
jalisar	-11209
khubaza	-11210
qukethwe	-11211
▁nzvimbo	-11212
▁izifundo	-11213
▁izindlela	-11214
31	-11215
tema	-11216
vest	-11217
▁sco	-11218
▁ìbọ	-11219
gbadi	-11220
isani	-11221
kungu	-11222
londa	-11223
ordan	-11224
osefu	-11225
theka	-11226
zenze	-11227
▁lálẹ	-11228
▁nazi	-11229
▁tuni	-11230
▁àwon	-11231
mukela	-11232
zvinhu	-11233
▁kwabe	-11234
▁nzela	-11235
ANZANIA	-11236
▁akwazi	-11237
▁lẹẹkan	-11238
▁kọmputa	-11239
▁owesifazane	-11240
gne	-11241
gxa	-11242
iwa	-11243
kum	-11244
▁IM	-11245
▁ik	-11246
dúró	-11247
kafu	-11248
létí	-11249
toli	-11250
yeke	-11251
▁moo	-11252
▁phi	-11253
gcisa	-11254
hunga	-11255
lifor	-11256
▁icho	-11257
▁kwee	-11258
▁olwa	-11259
▁sayo	-11260
▁sina	-11261
▁yave	-11262
banjwa	-11263
layani	-11264
salama	-11265
thisha	-11266
▁Katibu	-11267
hlangabe	-11268
▁gálátíà	-11269
erusalema	-11270
▁MTANZANIA	-11271
▁)	-11272
vie	-11273
yia	-11274
árá	-11275
▁jĭ	-11276
Kapa	-11277
mbon	-11278
mesi	-11279
pẹlu	-11280
sula	-11281
tutu	-11282
vala	-11283
▁iṣa	-11284
▁mfi	-11285
chule	-11286
iseni	-11287
lango	-11288
mocra	-11289
ṣòótọ	-11290
▁ipad	-11291
▁ruru	-11292
▁tẹrí	-11293
▁zalo	-11294
▁ẹbun	-11295
cebiso	-11296
▁abẹnu	-11297
▁alimi	-11298
▁kwete	-11299
▁power	-11300
▁kutora	-11301
▁kàyéfì	-11302
▁lèèyàn	-11303
▁nírètí	-11304
▁oṣuwọn	-11305
▁ujenzi	-11306
▁orileede	-11307
ES	-11308
pc	-11309
ọlọ	-11310
Aron	-11311
shya	-11312
yiki	-11313
▁mfe	-11314
gital	-11315
gumbi	-11316
ɲɔgɔn	-11317
▁empi	-11318
▁lemọ	-11319
▁maga	-11320
▁roba	-11321
▁siyi	-11322
gqondo	-11323
sanzwe	-11324
▁dziko	-11325
▁gazeti	-11326
▁hwevanhu	-11327
▁olùrànlọ	-11328
▁zvikwata	-11329
Jerusalema	-11330
▁kweminyaka	-11331
36	-11332
rsa	-11333
ume	-11334
▁ed	-11335
jùmọ	-11336
kaba	-11337
▁ደግሞ	-11338
bamba	-11339
danga	-11340
ishwe	-11341
quare	-11342
qwala	-11343
▁Lowo	-11344
▁agin	-11345
▁baru	-11346
▁sáyé	-11347
▁zana	-11348
zeleka	-11349
▁gbɛtɔ	-11350
▁isuna	-11351
▁momwe	-11352
▁ubani	-11353
▁yokun	-11354
▁òdòdó	-11355
tambira	-11356
▁Yehova	-11357
▁alagbe	-11358
▁indaba	-11359
▁mejila	-11360
▁vagari	-11361
▁ṣakoso	-11362
▁Pirates	-11363
▁erongba	-11364
▁ìdánilẹ	-11365
phakathini	-11366
▁nemapurisa	-11367
kg	-11368
Umu	-11369
rara	-11370
▁léè	-11371
▁ásí	-11372
eleza	-11373
kisho	-11374
sitse	-11375
tadza	-11376
yìndà	-11377
▁eben	-11378
▁enda	-11379
▁jónà	-11380
▁níṣọ	-11381
komeye	-11382
kulumo	-11383
qalisa	-11384
yipada	-11385
▁evela	-11386
▁igbẹjọ	-11387
▁ikanni	-11388
▁koYehova	-11389
▁esigabeni	-11390
HIV	-11391
rem	-11392
wum	-11393
▁dr	-11394
atia	-11395
diya	-11396
jili	-11397
jiri	-11398
kers	-11399
pano	-11400
▁150	-11401
▁arụ	-11402
▁dau	-11403
▁àmu	-11404
hlaza	-11405
hlisa	-11406
▁mawu	-11407
pereka	-11408
xelele	-11409
▁atijọ	-11410
▁ganji	-11411
▁ileri	-11412
▁itumọ	-11413
▁lóyún	-11414
▁mkazi	-11415
▁wengi	-11416
gebengu	-11417
▁dárúkọ	-11418
▁nyumba	-11419
▁America	-11420
▁ezimbalwa	-11421
▁·	-11422
jon	-11423
obi	-11424
ozi	-11425
tern	-11426
▁Isa	-11427
▁Mpo	-11428
▁Nam	-11429
▁ghɔ	-11430
▁ibà	-11431
▁kur	-11432
▁rho	-11433
▁uda	-11434
wenzi	-11435
▁ebun	-11436
▁míkà	-11437
thwala	-11438
▁about	-11439
▁ijoko	-11440
▁itsho	-11441
▁zezin	-11442
▁koleka	-11443
▁umfazi	-11444
▁apolisi	-11445
▁besithi	-11446
HR	-11447
baki	-11448
bera	-11449
hlin	-11450
mọni	-11451
wino	-11452
xico	-11453
▁...	-11454
▁Awa	-11455
▁Dis	-11456
▁nse	-11457
isiwe	-11458
▁Abdu	-11459
▁abam	-11460
▁làbá	-11461
▁popo	-11462
▁seng	-11463
▁zida	-11464
▁ààyè	-11465
svondo	-11466
kubhite	-11467
▁Ngakho	-11468
▁iranwọ	-11469
▁kontri	-11470
▁ojútùú	-11471
▁watoto	-11472
▁eyebisi	-11473
▁ìmọrírì	-11474
▁ukuhamba	-11475
▁olùṣàkóso	-11476
▁onígbọràn	-11477
▁ezilungileyo	-11478
▁ikakhulukazi	-11479
Be	-11480
▁ƒ	-11481
▁SE	-11482
▁fé	-11483
▁የማ	-11484
form	-11485
tọju	-11486
ungo	-11487
urwa	-11488
▁Oko	-11489
▁usd	-11490
▁yán	-11491
gwaro	-11492
kwani	-11493
nyuma	-11494
xhoba	-11495
▁York	-11496
▁blue	-11497
▁icyo	-11498
▁show	-11499
tsheni	-11500
▁Lagos	-11501
▁france	-11502
▁fúngbà	-11503
▁gbígba	-11504
▁ndithi	-11505
▁kuanzia	-11506
▁version	-11507
zukulwana	-11508
▁ntuliaka	-11509
▁wilayani	-11510
▁ihlabathi	-11511
▁yokuphila	-11512
▁amalungelo	-11513
▁zokuxhumana	-11514
ɖú	-11515
ገባ	-11516
-11	-11517
▁mt	-11518
Moya	-11519
boye	-11520
chel	-11521
cing	-11522
hlon	-11523
kuja	-11524
tego	-11525
yàyà	-11526
▁Ani	-11527
▁led	-11528
▁uSa	-11529
▁usb	-11530
▁ìná	-11531
▁òrù	-11532
kanwa	-11533
video	-11534
▁anwụ	-11535
▁dina	-11536
▁ison	-11537
▁kosa	-11538
▁hhayi	-11539
▁kungo	-11540
▁ìmúra	-11541
▁ọlọpa	-11542
▁ambiri	-11543
lifornia	-11544
▁kancane	-11545
▁nezveku	-11546
▁tesiwaju	-11547
cm	-11548
ant	-11549
jek	-11550
ogo	-11551
▁ɖĕ	-11552
aban	-11553
bazo	-11554
enne	-11555
llah	-11556
mbin	-11557
yusa	-11558
▁120	-11559
▁omn	-11560
▁ụwa	-11561
media	-11562
shela	-11563
▁sárà	-11564
bululo	-11565
dzirwa	-11566
ishoni	-11567
kunika	-11568
▁olólù	-11569
Mzantsi	-11570
qondiso	-11571
▁Yabona	-11572
▁kamẹra	-11573
▁ngobun	-11574
▁ìrékọjá	-11575
▁ṣafihan	-11576
▁izixhobo	-11577
▁ngoLwesibili	-11578
AP	-11579
dã	-11580
bbi	-11581
sor	-11582
▁áà	-11583
▁ɖɛ	-11584
sizi	-11585
▁edi	-11586
▁hɔn	-11587
▁mer	-11588
▁twa	-11589
amuzi	-11590
ressi	-11591
rinda	-11592
▁hawa	-11593
▁kẹkẹ	-11594
▁lọpọ	-11595
▁lọsẹ	-11596
▁maan	-11597
▁aafin	-11598
▁osere	-11599
▁thusa	-11600
▁zakwa	-11601
▁gbígbẹ	-11602
▁àràádọ	-11603
▁ọrọìwòye	-11604
▁mashabiki	-11605
▁indodakazi	-11606
GO	-11607
Kha	-11608
fer	-11609
ghe	-11610
pre	-11611
èdì	-11612
▁sẽ	-11613
vile	-11614
wèrè	-11615
▁Feb	-11616
pinle	-11617
press	-11618
▁kogi	-11619
▁solu	-11620
▁síná	-11621
zation	-11622
▁bello	-11623
▁ìtìjú	-11624
▁ṣàgbé	-11625
mataifa	-11626
website	-11627
banikazi	-11628
buhlungu	-11629
fundazwe	-11630
undation	-11631
▁nayiphi	-11632
▁service	-11633
▁kungekho	-11634
▁iliyopita	-11635
'.	-11636
AS	-11637
kín	-11638
▁Tɔ	-11639
lemọ	-11640
sita	-11641
sowo	-11642
▁400	-11643
▁Yaa	-11644
▁phu	-11645
▁stu	-11646
▁zvo	-11647
ticle	-11648
▁Leta	-11649
▁fayo	-11650
biribi	-11651
▁abane	-11652
▁akẹkọ	-11653
▁bílíọ	-11654
▁ezili	-11655
▁ifọwọ	-11656
▁kuche	-11657
▁yadda	-11658
▁ìdúró	-11659
▁ìnàjú	-11660
chitaura	-11661
vannyuma	-11662
▁kuitika	-11663
▁àtọkànwá	-11664
27	-11665
ሉት	-11666
afoɔ	-11667
bìlì	-11668
dánì	-11669
erre	-11670
gisi	-11671
lian	-11672
mbwe	-11673
oney	-11674
pany	-11675
▁duk	-11676
▁enɛ	-11677
▁kaN	-11678
▁mẹẹ	-11679
lapha	-11680
pheka	-11681
sɛbɛn	-11682
▁làwa	-11683
▁mman	-11684
kòkòrò	-11685
yorezo	-11686
▁abule	-11687
▁akọni	-11688
▁chema	-11689
▁kootu	-11690
▁kuzvi	-11691
▁wechi	-11692
▁zaben	-11693
▁èlíṣà	-11694
▁imbere	-11695
fikelela	-11696
▁mudunhu	-11697
▁wíwàásù	-11698
▁kunokuba	-11699
▁lóbìnrin	-11700
mthethweni	-11701
▁mumutambo	-11702
▁onyeisiala	-11703
▁kugadzirisa	-11704
ልግ	-11705
ọgi	-11706
dogo	-11707
muna	-11708
ners	-11709
wàbí	-11710
xaso	-11711
ziko	-11712
árín	-11713
▁kra	-11714
▁uPa	-11715
hinga	-11716
jamin	-11717
minye	-11718
tunhu	-11719
▁anka	-11720
▁bẹbẹ	-11721
▁ekwu	-11722
▁hata	-11723
▁nifẹ	-11724
▁paja	-11725
▁ògún	-11726
▁sukuu	-11727
▁yechi	-11728
▁ọjọbọ	-11729
▁ngaloo	-11730
▁pasina	-11731
▁ìfọkàn	-11732
▁inkonzo	-11733
▁ribiribi	-11734
kíẹ	-11735
Unis	-11736
kiya	-11737
wasi	-11738
▁29.	-11739
▁cir	-11740
dogun	-11741
▁maso	-11742
▁ezayo	-11743
▁house	-11744
▁maria	-11745
▁íńdíà	-11746
▁apakan	-11747
▁vizuri	-11748
▁gbasara	-11749
▁minyaka	-11750
▁nezinto	-11751
sụ	-11752
tj	-11753
vɛ	-11754
▁Bá	-11755
▁ድር	-11756
gium	-11757
koni	-11758
qini	-11759
rust	-11760
seka	-11761
stan	-11762
vuzo	-11763
▁VaD	-11764
bonwa	-11765
enera	-11766
▁nibe	-11767
ishino	-11768
▁maọbụ	-11769
▁sísun	-11770
▁taara	-11771
▁àyàfi	-11772
▁gbóògì	-11773
▁ngalaba	-11774
▁utshele	-11775
▁wadanda	-11776
▁kungiyar	-11777
▁microsoft	-11778
hlukahlukene	-11779
▁ngokubonisa	-11780
95	-11781
IL	-11782
ɑɑ	-11783
ayi	-11784
gis	-11785
qui	-11786
▁Mɔ	-11787
diza	-11788
lodi	-11789
▁leb	-11790
▁net	-11791
▁ras	-11792
▁way	-11793
▁àlé	-11794
▁bene	-11795
▁jápọ	-11796
khiphe	-11797
lwanga	-11798
▁Aidha	-11799
▁apero	-11800
▁ezizi	-11801
▁kacha	-11802
▁peter	-11803
▁Centre	-11804
▁Omunye	-11805
▁farapa	-11806
▁gbadun	-11807
▁izinga	-11808
▁kálukú	-11809
▁muziki	-11810
vashandi	-11811
▁kungaba	-11812
▁entabeni	-11813
▁hurongwa	-11814
▁kushanda	-11815
▁agbalagba	-11816
▁ngokukhubaza	-11817
48	-11818
▁Lọ	-11819
fẹfẹ	-11820
refu	-11821
xeba	-11822
▁ìso	-11823
qanda	-11824
tente	-11825
▁2009	-11826
▁abra	-11827
▁weze	-11828
bhalwe	-11829
thenge	-11830
▁ghana	-11831
thabathe	-11832
▁biliọnu	-11833
▁bokonzi	-11834
▁iindawo	-11835
▁namanye	-11836
▁shekara	-11837
▁okokuqala	-11838
Re	-11839
dìẹ	-11840
ṣii	-11841
ịka	-11842
▁hụ	-11843
koti	-11844
mple	-11845
nipa	-11846
ques	-11847
▁29,	-11848
▁Mis	-11849
▁kɔɔ	-11850
▁ìlé	-11851
mbono	-11852
máríà	-11853
ridge	-11854
▁bawu	-11855
▁embi	-11856
▁lida	-11857
▁ziza	-11858
mokolo	-11859
▁gaasi	-11860
▁ifọrọ	-11861
▁jíjìn	-11862
▁osisẹ	-11863
chitika	-11864
▁bangwe	-11865
▁benshi	-11866
▁mafuta	-11867
▁umlilo	-11868
▁israeli	-11869
khululekile	-11870
kt	-11871
-25	-11872
pal	-11873
unu	-11874
élì	-11875
▁ያለ	-11876
bọla	-11877
dane	-11878
foto	-11879
ombo	-11880
▁oya	-11881
▁àtè	-11882
▁ọdị	-11883
tumbi	-11884
ọpụta	-11885
▁benu	-11886
▁kilo	-11887
▁pʋga	-11888
▁yizi	-11889
▁àfọwọ	-11890
▁àjọyọ	-11891
▁ኢትዮጵያ	-11892
ristian	-11893
▁madzimai	-11894
▁iBhayibhile	-11895
Bhe	-11896
tto	-11897
fiki	-11898
gine	-11899
kuku	-11900
mbre	-11901
zuza	-11902
ɖuɖu	-11903
▁axɔ	-11904
▁gǎn	-11905
▁hii	-11906
▁iyẹ	-11907
▁lia	-11908
futha	-11909
mpala	-11910
table	-11911
ussia	-11912
▁baga	-11913
▁cogo	-11914
▁dákẹ	-11915
▁kplɔ	-11916
▁lilọ	-11917
▁siba	-11918
▁wezi	-11919
▁àìpé	-11920
▁bẹẹni	-11921
▁kwase	-11922
▁kwavo	-11923
▁ranti	-11924
▁ububi	-11925
▁òtútù	-11926
sondela	-11927
▁elinga	-11928
▁george	-11929
▁health	-11930
ombululo	-11931
▁alatako	-11932
Ar	-11933
ቢያ	-11934
ily	-11935
iro	-11936
▁ao	-11937
fela	-11938
fiti	-11939
husi	-11940
làwọ	-11941
rome	-11942
vesi	-11943
weka	-11944
▁nim	-11945
▁oró	-11946
phuzu	-11947
woran	-11948
▁Kasa	-11949
▁abin	-11950
▁agun	-11951
▁cons	-11952
▁iyin	-11953
▁kálẹ	-11954
▁pupo	-11955
▁tags	-11956
▁umwe	-11957
wasili	-11958
▁phili	-11959
kikisha	-11960
▁tálákà	-11961
▁nangona	-11962
phefumulo	-11963
▁Emmanuel	-11964
▁amaninzi	-11965
▁ukungena	-11966
▁ọmọlúwàbí	-11967
▁ngaphambili	-11968
ek	-11969
ሮች	-11970
gulu	-11971
late	-11972
mena	-11973
rade	-11974
sọrọ	-11975
▁Uyu	-11976
▁ige	-11977
▁max	-11978
▁ìrú	-11979
▁kilọ	-11980
▁tubọ	-11981
pfuura	-11982
vumele	-11983
▁milli	-11984
▁usizo	-11985
▁ààfin	-11986
bhekana	-11987
gendawo	-11988
thathwa	-11989
▁hakili	-11990
▁kuquka	-11991
▁office	-11992
▁títóbi	-11993
▁abadala	-11994
▁kungani	-11995
▁isinqumo	-11996
▁méjìdínlógún	-11997
EM	-11998
ɩk	-11999
dou	-12000
ony	-12001
▁bũ	-12002
▁dz	-12003
dule	-12004
fula	-12005
hámọ	-12006
liam	-12007
lulu	-12008
mano	-12009
stin	-12010
ጀርመን	-12011
▁cwə	-12012
▁two	-12013
cansi	-12014
▁Juni	-12015
▁kéná	-12016
▁lulú	-12017
▁ongu	-12018
▁sowọ	-12019
▁wàyí	-12020
▁éèdì	-12021
ingine	-12022
▁Haram	-12023
▁North	-12024
▁mradi	-12025
hlukile	-12026
thethwa	-12027
▁ambazo	-12028
▁bungwe	-12029
▁namnye	-12030
lungiswa	-12031
▁wengine	-12032
▁izindawo	-12033
▁wemikhosi	-12034
nsy	-12035
baya	-12036
gule	-12037
rịrị	-12038
▁Gan	-12039
▁bɔɔ	-12040
▁how	-12041
▁law	-12042
amond	-12043
hleni	-12044
ingia	-12045
ingqi	-12046
yiswe	-12047
▁Maka	-12048
▁kina	-12049
▁last	-12050
▁wulo	-12051
▁éṣíà	-12052
gement	-12053
govera	-12054
hammad	-12055
ibadan	-12056
miriri	-12057
▁sílùú	-12058
▁ìyàlẹ	-12059
▁zvimwe	-12060
khelwane	-12061
▁Dynamos	-12062
▁gíríìsì	-12063
▁umndeni	-12064
hambisana	-12065
▁ngemihla	-12066
▁lokubulala	-12067
tz	-12068
-13	-12069
gce	-12070
hoo	-12071
kgo	-12072
oní	-12073
▁né	-12074
bhen	-12075
posi	-12076
sars	-12077
yiso	-12078
▁kɛn	-12079
banje	-12080
twala	-12081
vices	-12082
▁Mwan	-12083
▁agbó	-12084
▁daya	-12085
Abantu	-12086
khumba	-12087
▁elula	-12088
▁gburu	-12089
▁gbòde	-12090
▁madzi	-12091
Ngcwele	-12092
▁August	-12093
▁Thomas	-12094
▁abiola	-12095
▁kusuka	-12096
▁ukutya	-12097
tarisana	-12098
▁ayipada	-12099
▁lugbadi	-12100
▁samáríà	-12101
▁wahlala	-12102
▁nedzimwe	-12103
ìjí	-12104
ńdà	-12105
isen	-12106
llen	-12107
jiyàn	-12108
lenze	-12109
▁dáná	-12110
▁kulu	-12111
▁kíka	-12112
▁kíni	-12113
▁kẹfa	-12114
▁nguM	-12115
▁zita	-12116
▁amágẹ	-12117
▁ìdajì	-12118
▁jẹjẹrẹ	-12119
▁kupara	-12120
▁ngemva	-12121
bungqina	-12122
▁okwenza	-12123
tyenziswa	-12124
▁kasashen	-12125
▁okuthiwa	-12126
▁matanhatu	-12127
▁ukuthetha	-12128
-14	-12129
kpụ	-12130
nie	-12131
oyi	-12132
▁FM	-12133
▁ምክ	-12134
ròtẹ	-12135
▁Abo	-12136
▁dua	-12137
girwa	-12138
lweyo	-12139
mizwa	-12140
mvelo	-12141
rembo	-12142
▁cour	-12143
▁ነበር።	-12144
kunene	-12145
shushu	-12146
wisela	-12147
▁eside	-12148
▁níhìn	-12149
▁ológo	-12150
▁reMDC	-12151
▁ungum	-12152
▁kejìlá	-12153
▁namhla	-12154
▁omuhle	-12155
▁Onyeisi	-12156
▁izindlu	-12157
▁iṣejọba	-12158
▁umsindo	-12159
▁miliyoni	-12160
▁noonyana	-12161
▁november	-12162
▁wanawake	-12163
▁Vachitaura	-12164
ለቲ	-12165
cka	-12166
▁bl	-12167
▁mĭ	-12168
borí	-12169
fupi	-12170
tifi	-12171
▁Air	-12172
limia	-12173
sabye	-12174
▁Iran	-12175
▁afta	-12176
▁nabi	-12177
▁taka	-12178
▁tima	-12179
▁usen	-12180
▁ṣèwà	-12181
bonile	-12182
▁Naibu	-12183
▁VaChi	-12184
▁akazi	-12185
▁awujọ	-12186
▁kusha	-12187
▁níbàá	-12188
Orlando	-12189
candelo	-12190
tangiye	-12191
▁Wizara	-12192
▁adwene	-12193
▁kufika	-12194
▁police	-12195
▁umsolwa	-12196
iningwane	-12197
▁mamiriyoni	-12198
▁okungunaphakade	-12199
Fu	-12200
sp	-12201
gbɛ	-12202
ood	-12203
ska	-12204
▁46	-12205
▁II	-12206
▁Nd	-12207
▁mf	-12208
fesa	-12209
rịka	-12210
xoxa	-12211
▁pay	-12212
▁èwo	-12213
▁édẹ	-12214
▁ɔre	-12215
gbaga	-12216
hlele	-12217
thern	-12218
yanye	-12219
▁ogbó	-12220
▁ààlà	-12221
▁ṣòfò	-12222
▁komwe	-12223
▁maana	-12224
vakashi	-12225
▁Vatiwo	-12226
▁commun	-12227
▁indima	-12228
▁mongwe	-12229
▁manomwe	-12230
sebenzela	-12231
▁oníròyìn	-12232
▁pasintha	-12233
▁vazhinji	-12234
▁mbulamatari	-12235
DF	-12236
ልጣ	-12237
cre	-12238
ppi	-12239
úṣẹ	-12240
isane	-12241
jiswa	-12242
láàdọ	-12243
wonse	-12244
▁dójú	-12245
▁sera	-12246
bhinqa	-12247
▁báálì	-12248
▁didun	-12249
▁eegun	-12250
▁fọọmu	-12251
▁igihe	-12252
▁ingen	-12253
▁ofisi	-12254
▁virus	-12255
phakeme	-12256
▁bibeli	-12257
▁forúkọ	-12258
▁indust	-12259
▁kunene	-12260
▁unyaka	-12261
▁kuchaza	-12262
▁olólùfẹ	-12263
sebenzayo	-12264
▁tlhalositse	-12265
ɖɛ	-12266
▁ሐ	-12267
IDS	-12268
▁Sɔ	-12269
edza	-12270
ject	-12271
rịta	-12272
tọla	-12273
wàdà	-12274
zoni	-12275
▁25,	-12276
▁31.	-12277
▁nri	-12278
▁sea	-12279
mlaka	-12280
shuma	-12281
xhome	-12282
ṣanna	-12283
▁ekwa	-12284
▁njia	-12285
▁wɔre	-12286
olomon	-12287
qanaba	-12288
yukayo	-12289
▁lọrun	-12290
▁sanwó	-12291
▁àkóso	-12292
dinlogo	-12293
khusela	-12294
sindisa	-12295
▁kalula	-12296
▁lójijì	-12297
▁sinima	-12298
thethayo	-12299
▁kaJehova	-12300
▁ngomnyaka	-12301
▁démocratique	-12302
FP	-12303
ራዊ	-12304
tɛn	-12305
ànù	-12306
ńkẹ	-12307
▁UT	-12308
▁ስለ	-12309
dómù	-12310
fojì	-12311
gina	-12312
trol	-12313
hlise	-12314
jókòó	-12315
simbi	-12316
▁afya	-12317
▁dòní	-12318
▁gusa	-12319
▁kuve	-12320
▁zine	-12321
rusale	-12322
tlango	-12323
▁gbàrà	-12324
▁kundi	-12325
▁ísákì	-12326
▁ṣeeṣe	-12327
lonjezo	-12328
▁aginjù	-12329
▁casino	-12330
▁chomwe	-12331
▁kukuru	-12332
▁tswele	-12333
▁ukuphu	-12334
▁Afurika	-12335
▁nitorina	-12336
▁oniruuru	-12337
lahlekelwa	-12338
▁iintlanga	-12339
▁yesigameko	-12340
▁ụmụnwaanyị	-12341
IT	-12342
ግር	-12343
▁Kú	-12344
▁gì	-12345
foní	-12346
rant	-12347
tein	-12348
▁Iki	-12349
World	-12350
▁Ohun	-12351
▁kele	-12352
▁sili	-12353
▁tiro	-12354
▁ṣètọ	-12355
Yakobi	-12356
zelela	-12357
▁aládé	-12358
▁kìnnì	-12359
▁láàmú	-12360
▁ìpèsè	-12361
▁aduonu	-12362
▁tábìlì	-12363
▁Ndebele	-12364
▁ajimobi	-12365
▁ezinhle	-12366
▁níbàámu	-12367
philileyo	-12368
▁Chikwata	-12369
▁Muhammadu	-12370
▁yehlabathi	-12371
38	-12372
▁ሆ	-12373
▁ሙ	-12374
▁ቡ	-12375
▁yĕ	-12376
meka	-12377
toke	-12378
vuse	-12379
wazi	-12380
wọlé	-12381
yulu	-12382
▁27,	-12383
▁nlo	-12384
board	-12385
thane	-12386
▁Kule	-12387
▁also	-12388
▁dare	-12389
▁dele	-12390
▁feto	-12391
▁fiyè	-12392
▁hada	-12393
▁kúlẹ	-12394
▁oyún	-12395
▁ziin	-12396
▁ìgbó	-12397
gwenxa	-12398
▁Bunge	-12399
▁akana	-12400
▁ofuna	-12401
hluleka	-12402
tandard	-12403
▁nginga	-12404
▁likaYehova	-12405
vha	-12406
dhaa	-12407
fuku	-12408
lolo	-12409
pane	-12410
tata	-12411
▁ave	-12412
▁gán	-12413
▁kpá	-12414
▁pyə	-12415
▁tyə	-12416
▁zun	-12417
mbuso	-12418
thony	-12419
▁bajẹ	-12420
▁buri	-12421
▁dọla	-12422
▁kaba	-12423
▁kíkẹ	-12424
▁lisa	-12425
▁open	-12426
▁idana	-12427
▁rasem	-12428
▁ọkada	-12429
koresha	-12430
▁ayikho	-12431
▁masere	-12432
gurukota	-12433
phendule	-12434
shishino	-12435
▁akiyesi	-12436
▁batsadi	-12437
▁kénáánì	-12438
▁vabatwa	-12439
▁elizweni	-12440
▁mishonga	-12441
gú	-12442
stẹ	-12443
▁ví	-12444
bare	-12445
báyé	-12446
kòwò	-12447
mons	-12448
wemo	-12449
òrùn	-12450
▁Afi	-12451
▁udu	-12452
▁ámó	-12453
forma	-12454
qwelo	-12455
sandi	-12456
tshan	-12457
▁Sene	-12458
▁dena	-12459
▁http	-12460
▁woli	-12461
▁yaVa	-12462
betumi	-12463
tegeko	-12464
▁lọkan	-12465
▁matan	-12466
▁mẹsan	-12467
handare	-12468
landira	-12469
▁Martin	-12470
▁fayẹmi	-12471
▁làbákẹ	-12472
fonífojì	-12473
tchereza	-12474
▁amahlanu	-12475
▁asilimia	-12476
▁munzvimbo	-12477
▁besifazane	-12478
ásì	-12479
▁pm	-12480
kúlẹ	-12481
zuko	-12482
▁Gen	-12483
▁clo	-12484
▁ìpẹ	-12485
hunsa	-12486
kwele	-12487
pedza	-12488
yambi	-12489
▁Aman	-12490
▁mola	-12491
▁raho	-12492
▁seen	-12493
▁wobu	-12494
▁yeye	-12495
kwenze	-12496
thunzi	-12497
▁alejo	-12498
▁asina	-12499
▁móábù	-12500
▁àpérò	-12501
▁gilasi	-12502
▁ndingu	-12503
▁kwenziwe	-12504
ʋa	-12505
tom	-12506
yim	-12507
bode	-12508
gcwe	-12509
pesi	-12510
ronu	-12511
rusi	-12512
teka	-12513
▁tìẹ	-12514
datha	-12515
kooti	-12516
misha	-12517
oorun	-12518
tongi	-12519
yandi	-12520
▁2008	-12521
▁Duni	-12522
▁dino	-12523
▁nehe	-12524
▁niṣẹ	-12525
▁poly	-12526
▁sine	-12527
▁àárọ	-12528
yokani	-12529
▁kwani	-12530
▁kwaze	-12531
▁mposo	-12532
▁niwon	-12533
▁ubona	-12534
▁yathi	-12535
▁àlàmú	-12536
hlasela	-12537
▁birnin	-12538
▁izizwe	-12539
▁kubata	-12540
▁mokolo	-12541
▁àtohun	-12542
▁ngemali	-12543
▁ngeSonto	-12544
thuthukisa	-12545
mangalisayo	-12546
yisebenzisa	-12547
▁emthethweni	-12548
32	-12549
íà	-12550
ọnà	-12551
buru	-12552
hura	-12553
indo	-12554
ings	-12555
jeti	-12556
lase	-12557
vuta	-12558
wisi	-12559
xoxo	-12560
▁250	-12561
▁atụ	-12562
▁avi	-12563
▁gɔn	-12564
▁kho	-12565
▁wẹẹ	-12566
hlezi	-12567
▁amma	-12568
▁bàtà	-12569
▁even	-12570
▁life	-12571
▁lógo	-12572
▁maji	-12573
▁sada	-12574
▁star	-12575
▁west	-12576
gressi	-12577
phunzi	-12578
svingo	-12579
▁abazo	-12580
▁chọrọ	-12581
▁ezima	-12582
▁agbábó	-12583
▁makore	-12584
▁vanoda	-12585
▁ìpèníjà	-12586
▁engcwele	-12587
▁kọmiṣanna	-12588
▁perezidan	-12589
▁àfonífojì	-12590
Ad	-12591
Lu	-12592
PF	-12593
pm	-12594
መለ	-12595
dɔn	-12596
kro	-12597
kíá	-12598
ọsi	-12599
cama	-12600
ebhu	-12601
rova	-12602
sibẹ	-12603
úùfù	-12604
▁28.	-12605
▁Abu	-12606
▁Kom	-12607
▁axi	-12608
▁bel	-12609
▁wha	-12610
gbere	-12611
hungu	-12612
▁umri	-12613
▁àìlẹ	-12614
isweni	-12615
khonze	-12616
korera	-12617
▁House	-12618
▁abẹle	-12619
▁amọṣa	-12620
▁chini	-12621
▁danho	-12622
▁eziba	-12623
▁kufun	-12624
▁mhuri	-12625
▁mihla	-12626
▁mvula	-12627
▁ìkóra	-12628
▁òpópó	-12629
▁ṣàánú	-12630
igihugu	-12631
Bhabheli	-12632
▁aṣeyọri	-12633
▁kolanda	-12634
▁jonathan	-12635
▁kumdlalo	-12636
▁njengoku	-12637
▁Amalungelo	-12638
▁ë	-12639
els	-12640
gda	-12641
sgo	-12642
ɖéé	-12643
▁44	-12644
lejo	-12645
▁Sam	-12646
▁VaP	-12647
▁fer	-12648
▁guŋ	-12649
▁lat	-12650
▁noo	-12651
▁swe	-12652
▁ነዉ።	-12653
gbìmọ	-12654
ghuli	-12655
wabhi	-12656
▁kíró	-12657
▁lọmọ	-12658
▁prin	-12659
▁sull	-12660
▁zeen	-12661
bonani	-12662
genaku	-12663
lelayo	-12664
▁efuna	-12665
▁isele	-12666
▁mtoto	-12667
▁ntoni	-12668
▁oluba	-12669
▁sùgbọ	-12670
▁uqale	-12671
phathwa	-12672
yishumi	-12673
▁edlule	-12674
▁emveni	-12675
▁mabini	-12676
engameli	-12677
mashauri	-12678
▁bakambi	-12679
▁kupinda	-12680
▁kìnnìún	-12681
▁congress	-12682
▁tinútinú	-12683
-17	-12684
Pha	-12685
gwọ	-12686
low	-12687
duki	-12688
fore	-12689
ikwa	-12690
kopo	-12691
kíbi	-12692
tama	-12693
yiwe	-12694
▁Ara	-12695
▁Hwe	-12696
▁STE	-12697
▁big	-12698
▁ńbẹ	-12699
inike	-12700
kiswe	-12701
konda	-12702
mbove	-12703
▁ahịa	-12704
▁mutí	-12705
▁wobɛ	-12706
phambu	-12707
▁aṣiṣe	-12708
▁sídìí	-12709
▁àkàrà	-12710
zerland	-12711
▁wabula	-12712
▁ọfiisi	-12713
▁milionu	-12714
▁senzira	-12715
▁Mohammed	-12716
▁internet	-12717
▁mchezaji	-12718
▁gbogbogbo	-12719
sc	-12720
ɖó	-12721
hho	-12722
mún	-12723
zán	-12724
▁Bé	-12725
yano	-12726
birin	-12727
verne	-12728
▁Togo	-12729
▁hwen	-12730
▁juwọ	-12731
▁jẹyọ	-12732
▁lisi	-12733
▁péye	-12734
▁weza	-12735
▁yaki	-12736
langan	-12737
tshelo	-12738
▁akoso	-12739
▁akọle	-12740
▁ibojì	-12741
▁idogo	-12742
▁isiqe	-12743
▁itoju	-12744
▁ndaba	-12745
▁ojuse	-12746
kwenkwe	-12747
▁okutuu	-12748
▁turkey	-12749
kwenziwa	-12750
▁aláàánú	-12751
▁chekuti	-12752
▁fainali	-12753
khuseleko	-12754
▁Broadcast	-12755
▁emlonyeni	-12756
▁kwemashoko	-12757
dyo	-12758
jyi	-12759
▁Ci	-12760
keng	-12761
qede	-12762
uchi	-12763
▁Eze	-12764
▁aru	-12765
▁beb	-12766
▁bra	-12767
▁ifá	-12768
▁ɔyɛ	-12769
▁ɛtɔ	-12770
▁Bere	-12771
▁tani	-12772
aniyan	-12773
guqula	-12774
▁kocha	-12775
▁ngawe	-12776
▁zaman	-12777
▁Obianọ	-12778
▁esinye	-12779
▁ìsíkíẹ	-12780
▁níléèwé	-12781
▁akindele	-12782
▁amaxesha	-12783
▁komhlaba	-12784
witzerland	-12785
khethekileyo	-12786
ens	-12787
rɛn	-12788
ọwọ	-12789
Kivu	-12790
bobo	-12791
dola	-12792
inin	-12793
jika	-12794
kòkò	-12795
kúfẹ	-12796
▁dat	-12797
▁dri	-12798
▁kyɛ	-12799
▁uja	-12800
▁vyo	-12801
fakwa	-12802
mentị	-12803
miswa	-12804
tachi	-12805
▁1000	-12806
▁fowo	-12807
▁fàlà	-12808
▁fèrè	-12809
▁soka	-12810
▁yeen	-12811
tanbul	-12812
▁dẹkun	-12813
▁gbese	-12814
▁motse	-12815
▁sheka	-12816
londolo	-12817
thuluzi	-12818
▁Police	-12819
▁jibiti	-12820
▁kyerɛɛ	-12821
▁maisha	-12822
▁ngokom	-12823
▁nnukwu	-12824
▁ụmụaka	-12825
▁amacala	-12826
▁balogun	-12827
▁lokacin	-12828
▁ukhetho	-12829
▁wahamba	-12830
▁ezinkundleni	-12831
MS	-12832
cul	-12833
ìlú	-12834
▁El	-12835
▁tẽ	-12836
kẹle	-12837
yire	-12838
▁600	-12839
▁Abi	-12840
▁deh	-12841
▁mmɔ	-12842
▁ofe	-12843
lwela	-12844
mbise	-12845
mirwa	-12846
obodo	-12847
▁bori	-12848
▁neze	-12849
▁shin	-12850
kinnyi	-12851
lement	-12852
▁2016.	-12853
▁eyayi	-12854
▁izolo	-12855
▁orílé	-12856
gagbaga	-12857
▁Uqhube	-12858
thandaza	-12859
▁ibalopọ	-12860
▁ibòmíràn	-12861
▁kuhakikisha	-12862
▁Nǔ	-12863
curu	-12864
gide	-12865
lumu	-12866
▁ijó	-12867
vemba	-12868
xheba	-12869
▁Dịka	-12870
▁dola	-12871
▁nana	-12872
▁nuna	-12873
▁tójú	-12874
▁2015.	-12875
▁chavo	-12876
▁ezisi	-12877
▁muchi	-12878
▁ọhụrụ	-12879
▁Harare	-12880
▁eléyìí	-12881
▁kánrin	-12882
▁uwanja	-12883
tekeleza	-12884
▁okunkun	-12885
▁kemikali	-12886
▁weZimbabwe	-12887
▁yeZimbabwe	-12888
fla	-12889
mpo	-12890
ɛnw	-12891
loli	-12892
rgin	-12893
sepo	-12894
tótó	-12895
▁Ber	-12896
▁Sse	-12897
▁kóo	-12898
kodwa	-12899
kwesi	-12900
▁bite	-12901
▁wọpọ	-12902
▁yaso	-12903
bulawe	-12904
hlolwa	-12905
tshenz	-12906
▁caman	-12907
▁redio	-12908
▁ukuza	-12909
vesithi	-12910
▁lililo	-12911
▁olorun	-12912
▁tayari	-12913
▁Chamisa	-12914
▁Nyanzvi	-12915
dakamizwa	-12916
▁jerusale	-12917
▁empilweni	-12918
Do	-12919
ulo	-12920
▁አካ	-12921
Uthe	-12922
geke	-12923
kulẹ	-12924
mhla	-12925
rela	-12926
ydro	-12927
ṣọla	-12928
▁Oba	-12929
▁Pan	-12930
▁tes	-12931
▁basu	-12932
▁copy	-12933
▁izim	-12934
▁kobo	-12935
▁lóri	-12936
▁payá	-12937
Ngakho	-12938
khokha	-12939
patala	-12940
▁iduro	-12941
▁oluṣẹ	-12942
▁goment	-12943
▁manufa	-12944
▁vachin	-12945
▁vakaita	-12946
▁pajawiri	-12947
▁pamutemo	-12948
▁Hurumende	-12949
Coronavirus	-12950
▁eminyakeni	-12951
▁kuNkulunkulu	-12952
hɔ	-12953
ሻሻ	-12954
íṣẹ	-12955
▁kɩ	-12956
▁od	-12957
odun	-12958
riro	-12959
tsan	-12960
ṣòro	-12961
▁héb	-12962
▁jàn	-12963
▁náí	-12964
Ngesi	-12965
kheli	-12966
taire	-12967
▁Kodi	-12968
▁Mine	-12969
▁Pari	-12970
▁ekya	-12971
▁haka	-12972
▁lọrọ	-12973
▁mine	-12974
▁miso	-12975
▁tupu	-12976
▁uben	-12977
▁ọsan	-12978
belana	-12979
hlamvu	-12980
▁Thixo	-12981
▁gbéjà	-12982
▁light	-12983
▁niger	-12984
▁fàlàlà	-12985
▁kuanza	-12986
▁ngapha	-12987
▁oluran	-12988
▁Burundi	-12989
▁olóògbé	-12990
▁ṣàgbéyẹ	-12991
▁akizungumza	-12992
46	-12993
ai	-12994
▁ዋ	-12995
▁iM	-12996
▁iy	-12997
▁ms	-12998
dian	-12999
forɔ	-13000
gbùn	-13001
rone	-13002
sayi	-13003
tant	-13004
▁Cor	-13005
▁Law	-13006
▁isu	-13007
Lokhu	-13008
▁halẹ	-13009
▁inye	-13010
▁luya	-13011
zivisa	-13012
▁Kauli	-13013
▁kuban	-13014
▁ngaku	-13015
▁north	-13016
▁rédíò	-13017
▁ìyọnu	-13018
shobora	-13019
▁daniel	-13020
▁ọgagun	-13021
▁Charles	-13022
▁abafana	-13023
dinlogoji	-13024
▁Shugaban	-13025
▁abakhulu	-13026
▁mínísítà	-13027
▁nehemáyà	-13028
▁ukuthatha	-13029
ap	-13030
lẽ	-13031
deka	-13032
kezo	-13033
pili	-13034
pula	-13035
zabe	-13036
▁CCM	-13037
▁Mna	-13038
▁ewì	-13039
▁àfẹ	-13040
bhuku	-13041
daiwa	-13042
gágun	-13043
llahi	-13044
mehlo	-13045
phulo	-13046
thisa	-13047
tures	-13048
▁Into	-13049
▁bwan	-13050
▁fipa	-13051
▁nibo	-13052
▁sent	-13053
▁tube	-13054
▁weva	-13055
▁ọọni	-13056
Mugabe	-13057
lisile	-13058
tshumi	-13059
▁ibile	-13060
▁ifese	-13061
▁union	-13062
▁lawujọ	-13063
▁látọwọ	-13064
▁mudare	-13065
▁omusha	-13066
▁article	-13067
▁azalaki	-13068
▁bakonzi	-13069
▁english	-13070
▁taasisi	-13071
▁akawanda	-13072
▁republic	-13073
▁zvakaita	-13074
▁ṣàìgbọràn	-13075
of	-13076
áyé	-13077
lole	-13078
mazi	-13079
tech	-13080
yita	-13081
▁ètè	-13082
gelwa	-13083
kwera	-13084
menza	-13085
shoma	-13086
vhuro	-13087
▁Muse	-13088
▁inko	-13089
▁jèhó	-13090
chukua	-13091
curity	-13092
tshala	-13093
▁Group	-13094
▁ayaba	-13095
▁owurọ	-13096
▁usiku	-13097
▁yedwa	-13098
mbazane	-13099
▁engine	-13100
▁ityala	-13101
▁látorí	-13102
▁kanzuru	-13103
▁mberede	-13104
▁nyanzvi	-13105
▁tààràtà	-13106
▁namadoda	-13107
▁ngalokho	-13108
nsì	-13109
▁Ou	-13110
▁የነ	-13111
SABC	-13112
bùkù	-13113
mish	-13114
reau	-13115
stic	-13116
zhou	-13117
▁VaS	-13118
▁ahu	-13119
▁arọ	-13120
▁key	-13121
▁kẹẹ	-13122
▁que	-13123
▁àná	-13124
betha	-13125
khonk	-13126
▁back	-13127
▁bura	-13128
▁fífẹ	-13129
▁ibha	-13130
▁julo	-13131
▁kade	-13132
▁nson	-13133
▁tojú	-13134
▁vafa	-13135
▁zuva	-13136
▁àìtọ	-13137
dúnrún	-13138
ganiro	-13139
iriṣii	-13140
lamini	-13141
lvania	-13142
▁Masha	-13143
▁merin	-13144
▁oniba	-13145
▁àgàgà	-13146
▁ìpara	-13147
mhlophe	-13148
thumele	-13149
▁UThixo	-13150
▁idahun	-13151
▁ngethuba	-13152
▁ìgbàlódé	-13153
▁ezibonakala	-13154
PSL	-13155
kpọ	-13156
ልግሎ	-13157
▁Bɔ	-13158
▁iT	-13159
dudu	-13160
▁amó	-13161
▁cal	-13162
▁mbu	-13163
▁wal	-13164
chumi	-13165
funzi	-13166
kadzi	-13167
▁UMnu	-13168
▁femi	-13169
▁wapi	-13170
nilétí	-13171
pristi	-13172
shyira	-13173
tshise	-13174
▁2015,	-13175
▁inama	-13176
▁iṣeto	-13177
▁lwaba	-13178
▁nyɔnu	-13179
▁àlùmọ	-13180
▁others	-13181
▁vasiri	-13182
▁Kampala	-13183
▁elinesi	-13184
▁kampuni	-13185
▁kanzima	-13186
▁makambo	-13187
▁sáàárín	-13188
tombazana	-13189
▁hospital	-13190
qinisekise	-13191
▁ifesewonse	-13192
ድረ	-13193
▁ሌ	-13194
Khu	-13195
duu	-13196
▁Ex	-13197
limo	-13198
paka	-13199
ping	-13200
ràrí	-13201
xusa	-13202
▁Gbɛ	-13203
▁adị	-13204
▁ahe	-13205
▁nṣe	-13206
▁uBa	-13207
anele	-13208
hambo	-13209
jumbe	-13210
kukhu	-13211
▁Wena	-13212
▁aile	-13213
▁edzi	-13214
▁euro	-13215
▁guno	-13216
▁ingu	-13217
▁lásá	-13218
▁sójà	-13219
▁zazi	-13220
▁ziba	-13221
dirira	-13222
ungana	-13223
▁láìfi	-13224
▁olowo	-13225
▁vaine	-13226
▁ziara	-13227
▁Chiefs	-13228
▁kíákíá	-13229
▁tùràrí	-13230
▁Nangona	-13231
▁Assemblée	-13232
▁abesifazane	-13233
Un	-13234
▁ኩ	-13235
díá	-13236
▁Sy	-13237
shua	-13238
▁Saa	-13239
▁kuN	-13240
▁now	-13241
▁nàá	-13242
▁ìjò	-13243
▁ìmá	-13244
gombe	-13245
mboni	-13246
tival	-13247
▁baha	-13248
▁biba	-13249
▁inde	-13250
▁pene	-13251
▁segd	-13252
▁tumọ	-13253
▁ungo	-13254
▁ìgba	-13255
▁ọkwa	-13256
celona	-13257
cintis	-13258
qinisa	-13259
▁getty	-13260
tangira	-13261
tilẹyin	-13262
xaxheba	-13263
▁abathi	-13264
▁aláìlẹ	-13265
▁oṣogbo	-13266
▁pinpin	-13267
▁travel	-13268
bonakude	-13269
▁emihlanu	-13270
▁kwabanye	-13271
semthethweni	-13272
77	-13273
fɑ	-13274
̩̀	-13275
dwi	-13276
ema	-13277
ède	-13278
ǹtí	-13279
▁41	-13280
▁Am	-13281
jèrè	-13282
maze	-13283
mura	-13284
tloe	-13285
voca	-13286
yalo	-13287
yuke	-13288
▁boo	-13289
▁fam	-13290
▁ìmí	-13291
ditse	-13292
khuni	-13293
▁Ibra	-13294
▁kalo	-13295
▁pụrụ	-13296
▁wálé	-13297
gbàgbé	-13298
tsapho	-13299
▁efana	-13300
▁munsi	-13301
▁ditlha	-13302
▁lafiya	-13303
▁lásárù	-13304
▁odlule	-13305
hlonipha	-13306
khansela	-13307
thandazo	-13308
▁arsenal	-13309
▁mkataba	-13310
▁oniṣowo	-13311
▁yenzeke	-13312
finyelela	-13313
▁akoroyin	-13314
▁uchaguzi	-13315
▁gwamnatin	-13316
▁kubonakala	-13317
98	-13318
ረጃ	-13319
IFA	-13320
zzi	-13321
ìdì	-13322
ɖee	-13323
bàge	-13324
faki	-13325
quba	-13326
rego	-13327
tigɛ	-13328
▁Din	-13329
▁Ger	-13330
▁Tun	-13331
▁fàá	-13332
▁mao	-13333
hamed	-13334
kunfa	-13335
menya	-13336
shado	-13337
tumwa	-13338
▁News	-13339
▁nidi	-13340
▁niya	-13341
mitemo	-13342
silisa	-13343
▁Khona	-13344
▁agogo	-13345
▁idoko	-13346
▁ngozi	-13347
▁vakan	-13348
▁árónì	-13349
mpyutha	-13350
▁idunnu	-13351
▁irinna	-13352
▁ngcono	-13353
▁uhamba	-13354
▁wabona	-13355
▁Munyori	-13356
▁UJehova	-13357
▁michael	-13358
▁nipinle	-13359
▁rinoona	-13360
▁uphinde	-13361
▁Cameroon	-13362
▁jakejado	-13363
▁medicine	-13364
▁Manchester	-13365
55	-13366
ex	-13367
ለች	-13368
kga	-13369
ple	-13370
zha	-13371
▁26.	-13372
▁dou	-13373
▁ìlò	-13374
dinku	-13375
dofin	-13376
hhala	-13377
kirwa	-13378
phiko	-13379
phule	-13380
▁bank	-13381
▁ding	-13382
▁gálí	-13383
▁kuwu	-13384
▁lalo	-13385
▁nímù	-13386
▁sisẹ	-13387
▁than	-13388
Bafana	-13389
bàgebè	-13390
humalo	-13391
▁April	-13392
▁ngona	-13393
mbisana	-13394
▁kkooti	-13395
▁kuyona	-13396
▁supile	-13397
tanzania	-13398
yànjiyàn	-13399
▁endsars	-13400
▁kunzima	-13401
▁munguva	-13402
hlangothi	-13403
▁isizathu	-13404
▁ngamunye	-13405
▁nkampani	-13406
gqongqoshe	-13407
ዉን	-13408
phy	-13409
▁42	-13410
▁iC	-13411
essi	-13412
hoho	-13413
logi	-13414
sisa	-13415
▁LLC	-13416
▁fla	-13417
▁iṣu	-13418
jonge	-13419
oklyn	-13420
takun	-13421
toria	-13422
▁Alex	-13423
▁vina	-13424
▁anama	-13425
▁ikolu	-13426
▁islam	-13427
▁kushu	-13428
Dynamos	-13429
anzibar	-13430
▁ileẹjọ	-13431
▁mibeko	-13432
▁people	-13433
▁Shirika	-13434
▁adúláwọ	-13435
▁ipolowo	-13436
▁kucheza	-13437
▁nímùúṣẹ	-13438
▁ngamanzi	-13439
thabathela	-13440
▁abathathu	-13441
▁zvakakosha	-13442
dg	-13443
ናት	-13444
Pre	-13445
ilu	-13446
rar	-13447
ɔla	-13448
ሪዎች	-13449
2019	-13450
biyi	-13451
chen	-13452
dzin	-13453
gawa	-13454
mili	-13455
phro	-13456
stru	-13457
▁bad	-13458
bunga	-13459
iland	-13460
tower	-13461
▁biso	-13462
▁huwa	-13463
▁liza	-13464
▁mike	-13465
▁njem	-13466
bulale	-13467
sinsin	-13468
tsvaga	-13469
▁abali	-13470
▁hwavo	-13471
▁kánjú	-13472
▁okumu	-13473
▁onoku	-13474
gempela	-13475
▁Ndlovu	-13476
▁mkhulu	-13477
▁samuel	-13478
▁umlomo	-13479
▁yokuzi	-13480
▁eziyisi	-13481
▁ngecala	-13482
▁waphuma	-13483
▁Botswana	-13484
▁istanbul	-13485
▁kaDavide	-13486
▁omphakathi	-13487
▁nigbagbogbo	-13488
bàjẹ	-13489
fuyo	-13490
giro	-13491
mola	-13492
zoba	-13493
▁Ago	-13494
▁Gba	-13495
▁sil	-13496
▁ọsọ	-13497
eneri	-13498
fakwe	-13499
tyenz	-13500
▁Enye	-13501
▁mary	-13502
Fakazi	-13503
dzidzo	-13504
▁ayeye	-13505
▁ndida	-13506
▁tsaya	-13507
▁yizin	-13508
▁ìsádi	-13509
onekana	-13510
phawula	-13511
▁banana	-13512
▁league	-13513
▁rotloe	-13514
▁yankin	-13515
▁kilicho	-13516
hunsafẹfẹ	-13517
▁azɔnkwín	-13518
▁Maendeleo	-13519
▁ngukumkani	-13520
34	-13521
UK	-13522
af	-13523
Izi	-13524
akọ	-13525
kwà	-13526
oru	-13527
cali	-13528
deru	-13529
kɔrɔ	-13530
tiya	-13531
▁Bay	-13532
▁nzo	-13533
▁sti	-13534
▁uwu	-13535
ctive	-13536
tsana	-13537
▁Baba	-13538
▁East	-13539
▁boju	-13540
▁kuMa	-13541
▁sing	-13542
▁yɔrɔ	-13543
▁zami	-13544
▁èèbó	-13545
▁adani	-13546
▁amewa	-13547
▁idaji	-13548
▁lengo	-13549
▁lẹgbẹ	-13550
▁nokwa	-13551
▁okuli	-13552
▁ìkejì	-13553
qeqesha	-13554
▁Bíbélì	-13555
▁abandi	-13556
▁lisusu	-13557
▁wokuba	-13558
▁Zanzibar	-13559
▁zvirango	-13560
▁okhulumela	-13561
kị	-13562
lû	-13563
▁ኤ	-13564
gie	-13565
▁họ	-13566
▁ty	-13567
bayo	-13568
bìtì	-13569
hónú	-13570
koba	-13571
kope	-13572
tena	-13573
wire	-13574
▁God	-13575
▁yáá	-13576
▁zee	-13577
▁አስተ	-13578
ckson	-13579
fúùfù	-13580
mweru	-13581
rimbo	-13582
shuri	-13583
▁char	-13584
▁mítà	-13585
▁owen	-13586
▁yabe	-13587
hlamba	-13588
keleyo	-13589
phetha	-13590
▁ezina	-13591
▁kauli	-13592
▁nakho	-13593
▁nidii	-13594
▁uMoya	-13595
gentina	-13596
▁aadọta	-13597
▁akoonu	-13598
▁botlho	-13599
▁koríko	-13600
▁kwenda	-13601
▁likolo	-13602
▁mashin	-13603
▁obiara	-13604
▁olórin	-13605
▁wakiwa	-13606
▁zvicha	-13607
▁gụnyere	-13608
▁namuhla	-13609
▁okumele	-13610
nsylvania	-13611
▁abasolwa	-13612
univesithi	-13613
IB	-13614
ይት	-13615
naa	-13616
pic	-13617
▁km	-13618
bena	-13619
cken	-13620
cogo	-13621
dada	-13622
kuzi	-13623
moyo	-13624
kunle	-13625
sanjo	-13626
sisha	-13627
thise	-13628
ìkejì	-13629
▁Beat	-13630
▁Muri	-13631
▁dodo	-13632
▁lalẹ	-13633
▁miye	-13634
▁mole	-13635
▁nowa	-13636
▁siqu	-13637
▁soko	-13638
▁suke	-13639
jekthi	-13640
▁ekwen	-13641
▁tshwa	-13642
▁አገልግሎ	-13643
kwanisi	-13644
▁dakika	-13645
▁gbagbọ	-13646
▁website	-13647
▁ìgbèkùn	-13648
lezidenti	-13649
▁kwelinye	-13650
▁kubatsira	-13651
▁iliyotolewa	-13652
▁pamusangano	-13653
▁ngonaphakade	-13654
Al	-13655
▁ች	-13656
▁ፈ	-13657
Asi	-13658
ẽng	-13659
▁òó	-13660
bodè	-13661
kete	-13662
kube	-13663
muel	-13664
▁red	-13665
▁òtù	-13666
fọkàn	-13667
gburu	-13668
rusha	-13669
tlanu	-13670
▁bɛna	-13671
▁impu	-13672
▁mode	-13673
▁plan	-13674
ganeko	-13675
▁adams	-13676
▁allah	-13677
▁dolla	-13678
▁night	-13679
▁nwata	-13680
▁nígbẹ	-13681
▁ubaba	-13682
▁Eagles	-13683
▁sifuna	-13684
▁wayese	-13685
▁lanfaani	-13686
▁vanotiwo	-13687
▁UNkulunkulu	-13688
ባቢ	-13689
uba	-13690
Chin	-13691
díje	-13692
pers	-13693
tics	-13694
▁Mon	-13695
▁ihu	-13696
▁uka	-13697
dweni	-13698
gbele	-13699
khela	-13700
mbuzi	-13701
pínlẹ	-13702
sanya	-13703
sondo	-13704
▁Kano	-13705
▁ahyɛ	-13706
▁enti	-13707
▁isii	-13708
▁násì	-13709
▁wɔyɛ	-13710
▁zabe	-13711
muweli	-13712
▁bathe	-13713
▁gbéni	-13714
▁kusen	-13715
▁ndima	-13716
▁nento	-13717
▁pọkàn	-13718
▁àbùkù	-13719
▁sheria	-13720
▁wazala	-13721
palamente	-13722
pumalanga	-13723
▁alábàákẹ	-13724
▁ukugcina	-13725
tv	-13726
ray	-13727
▁Ok	-13728
▁pã	-13729
onus	-13730
qaqa	-13731
rebu	-13732
reet	-13733
rorò	-13734
weta	-13735
▁yie	-13736
etros	-13737
sisin	-13738
wunye	-13739
▁bọla	-13740
▁eyín	-13741
▁kọwe	-13742
▁yale	-13743
rúgbìn	-13744
▁boolu	-13745
▁gbédè	-13746
▁kwale	-13747
▁ranar	-13748
▁sengi	-13749
▁tʋʋma	-13750
▁ukuku	-13751
▁weMDC	-13752
hambela	-13753
shonile	-13754
▁gálílì	-13755
▁mkubwa	-13756
▁msanii	-13757
▁nitosi	-13758
▁poland	-13759
▁umfana	-13760
▁ṣèpàdé	-13761
▁akojọpọ	-13762
▁idiyele	-13763
▁okungen	-13764
▁yabadde	-13765
▁akazange	-13766
▁gbígbóná	-13767
▁igbákejì	-13768
▁ukususela	-13769
▁ngokunjalo	-13770
lp	-13771
bom	-13772
kpá	-13773
pya	-13774
zia	-13775
hunu	-13776
kuva	-13777
lágà	-13778
sára	-13779
▁1-0	-13780
▁Uze	-13781
▁cnc	-13782
▁mpu	-13783
bwera	-13784
cking	-13785
donga	-13786
kwati	-13787
kánjú	-13788
razza	-13789
viswa	-13790
zonke	-13791
▁book	-13792
▁boye	-13793
▁othi	-13794
▁over	-13795
▁tóní	-13796
▁ukhu	-13797
▁wafa	-13798
khethi	-13799
komeje	-13800
lakala	-13801
▁jiyàn	-13802
▁ndako	-13803
▁ndege	-13804
▁rhoqo	-13805
▁taifa	-13806
▁ìnáwó	-13807
hlukana	-13808
▁kwakun	-13809
▁mubazi	-13810
▁yìnyín	-13811
▁germany	-13812
▁iingubo	-13813
▁abadofin	-13814
▁babajide	-13815
▁bokutani	-13816
NC	-13817
PP	-13818
ns	-13819
ija	-13820
oda	-13821
ome	-13822
▁Bó	-13823
▁có	-13824
lékì	-13825
mora	-13826
pite	-13827
quot	-13828
reat	-13829
zolo	-13830
▁Bel	-13831
▁Nin	-13832
▁bóo	-13833
▁ibí	-13834
▁òṣè	-13835
gbani	-13836
regwu	-13837
sàájú	-13838
tlana	-13839
voire	-13840
▁STEP	-13841
▁chen	-13842
▁jẹwọ	-13843
▁jọra	-13844
▁your	-13845
nesses	-13846
zelayo	-13847
▁2016,	-13848
▁India	-13849
▁bèèrè	-13850
▁ekomi	-13851
▁kunna	-13852
▁plánẹ	-13853
▁zvine	-13854
▁Kamati	-13855
▁eBhayi	-13856
Botswana	-13857
entlanga	-13858
khathini	-13859
sisekelo	-13860
▁hukumar	-13861
▁ọdọọdún	-13862
▁boyokani	-13863
▁mwishoni	-13864
▁ukuhlala	-13865
phulaphula	-13866
▁ungakwazi	-13867
▁emfutshane	-13868
HE	-13869
ŭn	-13870
cra	-13871
▁Ng	-13872
▁kʋ	-13873
dwan	-13874
fura	-13875
gudu	-13876
kina	-13877
onia	-13878
popo	-13879
rẹrẹ	-13880
vusa	-13881
▁Lil	-13882
▁PDP	-13883
▁ach	-13884
▁cur	-13885
▁fon	-13886
▁rea	-13887
▁sai	-13888
▁ìṣi	-13889
bheni	-13890
hango	-13891
hwebo	-13892
tsimi	-13893
▁búra	-13894
▁mase	-13895
▁moni	-13896
▁siye	-13897
▁yala	-13898
funyan	-13899
gcinwa	-13900
▁ajayi	-13901
▁baabi	-13902
▁dahun	-13903
▁elimu	-13904
▁italy	-13905
▁kenya	-13906
▁kweku	-13907
▁náómì	-13908
▁ongum	-13909
nigeria	-13910
phelile	-13911
▁darukọ	-13912
▁matanho	-13913
therlands	-13914
kwahlulela	-13915
▁ephakathi	-13916
▁àríyànjiyàn	-13917
▁okulungileyo	-13918
▁ä	-13919
bre	-13920
fri	-13921
oun	-13922
seɛ	-13923
▁dc	-13924
fèrí	-13925
tywe	-13926
▁aci	-13927
▁níí	-13928
▁yau	-13929
henyu	-13930
laasi	-13931
mbura	-13932
mited	-13933
phelo	-13934
▁000.	-13935
▁Goma	-13936
▁divi	-13937
▁dórí	-13938
▁kiko	-13939
▁lóru	-13940
▁maho	-13941
▁malo	-13942
▁matu	-13943
▁saku	-13944
▁teba	-13945
▁wúwo	-13946
ehovah	-13947
komeza	-13948
▁Ngiya	-13949
▁kwemu	-13950
▁mamwe	-13951
yumweru	-13952
▁bebree	-13953
▁morago	-13954
▁nyimbo	-13955
shunguru	-13956
▁aláìlera	-13957
▁izindaba	-13958
▁kangango	-13959
▁kwamanye	-13960
qinisekiso	-13961
▁ileewosan	-13962
Ab	-13963
ʉɔ	-13964
awa	-13965
emi	-13966
ibe	-13967
síà	-13968
xin	-13969
▁Im	-13970
▁UG	-13971
caca	-13972
gami	-13973
kiwà	-13974
siwe	-13975
wise	-13976
zalo	-13977
▁bas	-13978
▁byi	-13979
▁ìpà	-13980
Ngoko	-13981
eneja	-13982
kithi	-13983
mangi	-13984
thume	-13985
▁Kamp	-13986
▁fọrọ	-13987
▁kawa	-13988
▁labe	-13989
▁mare	-13990
▁yimi	-13991
▁àárẹ	-13992
bileyo	-13993
ckdown	-13994
tumizi	-13995
▁kúnjú	-13996
▁ngoma	-13997
▁vaive	-13998
dlulise	-13999
▁angama	-14000
▁intsha	-14001
▁iranti	-14002
▁umbuzo	-14003
▁wafika	-14004
▁ìgbàjá	-14005
nigbàgbé	-14006
▁nenyaya	-14007
▁uSawule	-14008
▁wasanii	-14009
▁alagbeka	-14010
▁business	-14011
▁muhammed	-14012
▁onígboyà	-14013
phakamileyo	-14014
▁nígbàkigbà	-14015
▁zvakawanda	-14016
WE	-14017
rma	-14018
▁56	-14019
▁rù	-14020
▁Ɖo	-14021
báni	-14022
ciki	-14023
godo	-14024
gídí	-14025
lọlẹ	-14026
tínì	-14027
▁30.	-14028
▁Bor	-14029
▁Mei	-14030
▁ntụ	-14031
▁ɖee	-14032
banja	-14033
dence	-14034
isini	-14035
theli	-14036
vimba	-14037
▁Khan	-14038
▁asaa	-14039
▁dawa	-14040
▁mwan	-14041
▁ndim	-14042
▁purọ	-14043
▁tare	-14044
▁àìrí	-14045
bonise	-14046
boshwa	-14047
gamshe	-14048
phenyo	-14049
▁ifẹsẹ	-14050
▁konge	-14051
▁mbewu	-14052
▁ìyókù	-14053
bandela	-14054
dinlọgọ	-14055
thelela	-14056
▁Indoda	-14057
▁alaaji	-14058
▁kèfèrí	-14059
▁sokoto	-14060
▁umbono	-14061
fundiswa	-14062
▁egameni	-14063
▁huwandu	-14064
▁mutongo	-14065
▁stephen	-14066
▁ìmárale	-14067
▁izikhulu	-14068
▁Champions	-14069
▁vanofanirwa	-14070
",	-14071
TM	-14072
Ta	-14073
-40	-14074
Cop	-14075
nyo	-14076
sul	-14077
tùn	-14078
òhò	-14079
▁eK	-14080
▁ፕሬ	-14081
cade	-14082
látù	-14083
▁Awu	-14084
▁zán	-14085
bàámọ	-14086
cinde	-14087
dwebo	-14088
kwabo	-14089
mberi	-14090
tance	-14091
▁bisa	-14092
▁fari	-14093
▁huru	-14094
▁kutu	-14095
▁ngin	-14096
▁niye	-14097
▁wese	-14098
maliza	-14099
ritswa	-14100
yamata	-14101
▁apamọ	-14102
▁bangi	-14103
▁ibinu	-14104
▁ilifa	-14105
▁iṣako	-14106
▁kíkan	-14107
▁laban	-14108
▁ndiwo	-14109
▁zithi	-14110
gcineni	-14111
hambisa	-14112
hlanhla	-14113
isiweyo	-14114
▁Habari	-14115
▁etíkun	-14116
▁gukora	-14117
▁imyaka	-14118
▁kíyèsí	-14119
▁misato	-14120
▁wilaya	-14121
softhiwe	-14122
▁emibili	-14123
▁osinbajo	-14124
▁alipokuwa	-14125
▁emphakathini	-14126
hy	-14127
▁ቅ	-14128
▁ኢ	-14129
▁ኮ	-14130
dee	-14131
mus	-14132
▁UZ	-14133
▁ምር	-14134
gers	-14135
leze	-14136
rewa	-14137
riye	-14138
ronú	-14139
selu	-14140
ssou	-14141
xoki	-14142
yang	-14143
▁ANa	-14144
▁Etɛ	-14145
▁abɛ	-14146
▁mac	-14147
▁msa	-14148
▁uLe	-14149
kande	-14150
khiwe	-14151
rínwó	-14152
▁Kwan	-14153
▁dugu	-14154
▁lenu	-14155
▁rãmb	-14156
▁zaku	-14157
▁zizo	-14158
▁abẹwo	-14159
▁bheka	-14160
▁emgwa	-14161
▁jùdíà	-14162
▁káàdì	-14163
▁ngelo	-14164
▁olujẹ	-14165
▁tunde	-14166
▁ukusi	-14167
▁zvave	-14168
▁ṣọọbu	-14169
▁ọjọru	-14170
▁abasha	-14171
▁madoda	-14172
garagara	-14173
▁Ibrahim	-14174
▁abangama	-14175
▁ọmọnìkejì	-14176
▁mánigbàgbé	-14177
39	-14178
88	-14179
Pi	-14180
ንም	-14181
ዛሬ	-14182
▁ር	-14183
300	-14184
dum	-14185
lom	-14186
láì	-14187
▁UB	-14188
▁gè	-14189
▁pụ	-14190
....	-14191
Copy	-14192
Onke	-14193
dayo	-14194
fere	-14195
joba	-14196
lulo	-14197
pore	-14198
romo	-14199
susa	-14200
▁Iyi	-14201
▁Pay	-14202
▁Sẽn	-14203
▁awe	-14204
bomvu	-14205
dalwa	-14206
kende	-14207
thusa	-14208
torwa	-14209
▁Kamə	-14210
▁dádì	-14211
▁seri	-14212
▁yese	-14213
▁ọjọọ	-14214
kazana	-14215
tsimbi	-14216
▁Nígbà	-14217
▁adirẹ	-14218
▁akuyi	-14219
▁bọọlụ	-14220
▁eyisi	-14221
▁fanga	-14222
▁ndiba	-14223
▁okuta	-14224
▁white	-14225
▁àkájọ	-14226
bhelini	-14227
▁Chirad	-14228
▁Fayulu	-14229
▁elihle	-14230
▁inside	-14231
▁kikosi	-14232
▁othile	-14233
▁pachin	-14234
▁pílátù	-14235
▁walasa	-14236
▁agbebọn	-14237
▁comments	-14238
▁isidumbu	-14239
▁kabiyesi	-14240
▁olukhulu	-14241
razzaville	-14242
▁kusangana	-14243
▁ukuthandana	-14244
ከል	-14245
▁ě	-14246
som	-14247
ታችን	-14248
▁ep	-14249
▁àn	-14250
dong	-14251
enze	-14252
fudu	-14253
hini	-14254
mith	-14255
pain	-14256
pụrụ	-14257
rick	-14258
▁Sou	-14259
▁akó	-14260
▁sur	-14261
▁ìka	-14262
famba	-14263
rohwa	-14264
tedza	-14265
▁Pala	-14266
▁délé	-14267
▁gídí	-14268
▁hafi	-14269
▁haki	-14270
▁kita	-14271
▁rira	-14272
▁unao	-14273
▁yaha	-14274
▁ástẹ	-14275
dubula	-14276
kezaji	-14277
sisiyi	-14278
▁ekuti	-14279
▁fọgbọ	-14280
▁kumba	-14281
▁ojutu	-14282
▁súnmọ	-14283
▁toyin	-14284
kulembe	-14285
▁square	-14286
▁abafuna	-14287
▁kubakho	-14288
▁kábàámọ	-14289
▁uKristu	-14290
▁umfundi	-14291
Copyright	-14292
hlukileyo	-14293
▁Chiradzulu	-14294
▁ANatchereza	-14295
pɔ	-14296
ዲስ	-14297
fọn	-14298
ńgó	-14299
aika	-14300
irin	-14301
onel	-14302
teur	-14303
▁HIV	-14304
▁Hol	-14305
▁MDC	-14306
▁élí	-14307
▁ዓመት	-14308
abuja	-14309
andaa	-14310
beera	-14311
gweta	-14312
olong	-14313
renga	-14314
wenga	-14315
▁Park	-14316
▁bɛyɛ	-14317
▁give	-14318
▁uyin	-14319
▁wuto	-14320
▁James	-14321
▁Ofisi	-14322
▁ewéko	-14323
▁mazwi	-14324
gqibele	-14325
▁agbese	-14326
▁chimwe	-14327
▁gudana	-14328
▁ibòmíì	-14329
▁nyanga	-14330
dokotela	-14331
▁adeleke	-14332
▁amawaka	-14333
▁iqabane	-14334
▁kutumia	-14335
▁àsọjáde	-14336
▁Njengoba	-14337
▁kuthetha	-14338
▁nisisiyi	-14339
▁ojoojumọ	-14340
lungiselelo	-14341
▁kangakanani	-14342
44	-14343
Ni	-14344
To	-14345
dd	-14346
ọọ	-14347
ale	-14348
ged	-14349
ለን።	-14350
▁eH	-14351
▁zɛ	-14352
.201	-14353
mema	-14354
mika	-14355
reba	-14356
robi	-14357
yeba	-14358
▁2-1	-14359
▁abí	-14360
▁fɛn	-14361
isati	-14362
lelaa	-14363
pheni	-14364
thani	-14365
zibwa	-14366
▁2007	-14367
▁Bula	-14368
▁nkwà	-14369
▁pópó	-14370
▁yàgò	-14371
khondo	-14372
kutana	-14373
limala	-14374
sukela	-14375
xazulu	-14376
▁Utsho	-14377
▁afoju	-14378
▁koraa	-14379
▁lokun	-14380
▁nwụrụ	-14381
▁nzira	-14382
▁ododo	-14383
▁umdla	-14384
▁ìkọlù	-14385
▁መንግሥት	-14386
▁George	-14387
▁ilọrin	-14388
▁kugeza	-14389
▁nezuro	-14390
▁ulwimi	-14391
tembelea	-14392
▁dzinoti	-14393
zvimirira	-14394
▁iintsuku	-14395
▁witnesses	-14396
▁aláìgbàgbọ	-14397
RC	-14398
cky	-14399
htt	-14400
ins	-14401
odo	-14402
▁ei	-14403
▁xu	-14404
pper	-14405
rura	-14406
weng	-14407
▁Gwa	-14408
▁art	-14409
▁glo	-14410
▁zab	-14411
fatan	-14412
kyala	-14413
lishi	-14414
paarọ	-14415
qwaba	-14416
rwisa	-14417
sanda	-14418
tokeo	-14419
▁Andi	-14420
▁cala	-14421
▁iṣun	-14422
▁reti	-14423
▁tutù	-14424
▁woba	-14425
holela	-14426
khakha	-14427
shinga	-14428
velisa	-14429
▁2021.	-14430
▁Court	-14431
▁Shiri	-14432
▁labɛn	-14433
▁mọnde	-14434
▁sekta	-14435
▁yanzu	-14436
▁ẹgbọn	-14437
khulula	-14438
▁Madrid	-14439
▁bokono	-14440
▁foforɔ	-14441
▁ijọsin	-14442
▁kokoro	-14443
▁yípadà	-14444
▁ìgbọràn	-14445
▁òpópónà	-14446
▁lefatshe	-14447
▁umthombo	-14448
AM	-14449
Ye	-14450
ባት	-14451
ዳን	-14452
obu	-14453
plo	-14454
wɛn	-14455
▁Ce	-14456
▁yõ	-14457
-100	-14458
bise	-14459
biye	-14460
yiro	-14461
zazi	-14462
▁Taa	-14463
▁jii	-14464
▁ohi	-14465
▁rwo	-14466
▁énọ	-14467
choka	-14468
dward	-14469
stínì	-14470
zwayo	-14471
▁bojú	-14472
▁délẹ	-14473
▁gble	-14474
▁hánà	-14475
▁inki	-14476
▁maki	-14477
▁mape	-14478
▁níyà	-14479
▁road	-14480
▁sila	-14481
▁sóde	-14482
▁wèmá	-14483
▁ịgba	-14484
▁borno	-14485
▁fínra	-14486
▁gbero	-14487
▁ìjòyè	-14488
ondweni	-14489
▁corona	-14490
▁ezimbi	-14491
▁lwethu	-14492
▁mugari	-14493
▁rotimi	-14494
fanikiwa	-14495
thembiso	-14496
▁darúgbó	-14497
▁ngegama	-14498
▁olujẹjọ	-14499
▁simẹnti	-14500
▁ukufaka	-14501
▁ukwakha	-14502
▁ukukhuluma	-14503
bùú	-14504
ced	-14505
gna	-14506
lim	-14507
nor	-14508
ojo	-14509
ube	-14510
yal	-14511
yer	-14512
▁00	-14513
berg	-14514
hazi	-14515
rufu	-14516
tasa	-14517
toka	-14518
tɔnu	-14519
unti	-14520
▁bea	-14521
▁uwo	-14522
▁weS	-14523
▁àwá	-14524
▁òjì	-14525
cyclo	-14526
hashe	-14527
zɔnnɔ	-14528
▁crea	-14529
▁debi	-14530
▁keke	-14531
▁main	-14532
▁nano	-14533
▁pẹrẹ	-14534
▁vose	-14535
▁yare	-14536
▁ziye	-14537
bingwa	-14538
chezwa	-14539
jawulo	-14540
trader	-14541
▁azɔmɛ	-14542
▁boken	-14543
▁brown	-14544
▁galam	-14545
▁udaba	-14546
▁ìkéde	-14547
hìnrere	-14548
▁nokuzi	-14549
▁number	-14550
▁uluhlu	-14551
▁Jamhuri	-14552
▁ngamnye	-14553
▁opolopo	-14554
▁ìpalára	-14555
▁nguThixo	-14556
▁setshaba	-14557
▁wafanyabiashara	-14558
yó	-14559
-0.	-14560
mmɔ	-14561
nde	-14562
▁av	-14563
Uthi	-14564
amua	-14565
mawa	-14566
ríkọ	-14567
sazi	-14568
▁VaB	-14569
dọrin	-14570
hetha	-14571
▁atwa	-14572
▁bẹnu	-14573
▁didi	-14574
▁kobu	-14575
▁temi	-14576
▁ɖaxo	-14577
banika	-14578
khulun	-14579
ppines	-14580
sowopo	-14581
▁Minis	-14582
▁benki	-14583
▁kudzo	-14584
▁naija	-14585
▁parun	-14586
▁rwego	-14587
▁uZuma	-14588
▁yááfì	-14589
▁ṣohun	-14590
Mantshi	-14591
fundiso	-14592
jengoko	-14593
tàdínlọ	-14594
▁ilẹkun	-14595
▁vasati	-14596
▁ásíríà	-14597
▁mampinga	-14598
▁ọbasanjọ	-14599
▁kwechirwere	-14600
SS	-14601
hz	-14602
ሩት	-14603
▁75	-14604
izer	-14605
kaka	-14606
ligi	-14607
ntún	-14608
piwa	-14609
qina	-14610
sali	-14611
vale	-14612
vuya	-14613
xeko	-14614
▁mas	-14615
▁ọlụ	-14616
hòòhò	-14617
mpuma	-14618
rsday	-14619
▁bàbà	-14620
▁sẹlẹ	-14621
▁tura	-14622
▁umng	-14623
▁àmìọ	-14624
▁ṣọṣẹ	-14625
fikile	-14626
tshisa	-14627
uverne	-14628
▁korea	-14629
▁mambo	-14630
▁sanra	-14631
▁ìdákẹ	-14632
faransa	-14633
hlawula	-14634
tshulwa	-14635
▁eyenza	-14636
▁flight	-14637
▁láàánú	-14638
▁yilowo	-14639
▁jehovah	-14640
▁kuyinto	-14641
▁mọkanla	-14642
▁àṣekára	-14643
▁galamsey	-14644
▁kwiindawo	-14645
▁nezingane	-14646
▁zvizvarwa	-14647
▁kutarisirwa	-14648
▁mutevedzeri	-14649
65	-14650
ድን	-14651
▁UA	-14652
▁ɖì	-14653
coma	-14654
gbàa	-14655
kélì	-14656
ohun	-14657
pato	-14658
▁Gra	-14659
▁abụ	-14660
▁ezu	-14661
▁god	-14662
▁pis	-14663
kiiko	-14664
▁bũmb	-14665
▁dájọ	-14666
▁ebha	-14667
▁hese	-14668
▁kɛkɛ	-14669
▁láyà	-14670
▁mani	-14671
▁sake	-14672
ctions	-14673
kiriza	-14674
lowaya	-14675
rarama	-14676
yuvesi	-14677
▁Mbeya	-14678
▁banso	-14679
▁jaaka	-14680
▁ozayo	-14681
▁weChi	-14682
▁àwárí	-14683
▁àárin	-14684
wedzera	-14685
▁ephuma	-14686
▁hagati	-14687
▁misusu	-14688
▁mmudzi	-14689
khankaso	-14690
peration	-14691
▁abafazi	-14692
▁alaisan	-14693
▁umdlali	-14694
▁ngakhale	-14695
▁sekaráyà	-14696
▁umkhonzi	-14697
▁yokwenza	-14698
hlanganise	-14699
tliziyweni	-14700
▁kushiriki	-14701
▁vechidiki	-14702
jwayelekile	-14703
▁matambudziko	-14704
▁vanachiremba	-14705
Gu	-14706
OA	-14707
ዎቹ	-14708
jar	-14709
ለቲካ	-14710
▁Ɖò	-14711
gero	-14712
himu	-14713
lífì	-14714
mban	-14715
▁Ing	-14716
▁pra	-14717
▁Àṣe	-14718
▁àbọ	-14719
▁ṣaa	-14720
gwele	-14721
▁aust	-14722
▁enza	-14723
▁fere	-14724
▁lóko	-14725
▁mẹwa	-14726
▁paṣi	-14727
▁wʋsg	-14728
▁yíká	-14729
kosini	-14730
ntúnwọ	-14731
▁bonus	-14732
▁congo	-14733
▁góńgó	-14734
▁iṣuna	-14735
▁kikao	-14736
▁kwano	-14737
▁shehu	-14738
▁ulimi	-14739
▁ɛbɛyɛ	-14740
lingisi	-14741
▁Robert	-14742
▁bikolo	-14743
▁umculo	-14744
▁ìsìnkú	-14745
▁Profesa	-14746
▁hupfumi	-14747
▁uthethe	-14748
tshengisa	-14749
▁Facebook	-14750
▁gbédègbẹ	-14751
▁mhlawumbi	-14752
▁musarudzo	-14753
▁ìránnilétí	-14754
bn	-14755
▁;	-14756
400	-14757
kpì	-14758
vic	-14759
ùbá	-14760
▁39	-14761
▁fl	-14762
▁lě	-14763
gadi	-14764
kiza	-14765
ɲɛna	-14766
▁Day	-14767
▁mor	-14768
▁tag	-14769
manci	-14770
orgia	-14771
uraya	-14772
▁Baye	-14773
▁fòye	-14774
▁joko	-14775
▁nami	-14776
▁oshi	-14777
vision	-14778
▁faith	-14779
▁àbùdá	-14780
lawulwa	-14781
propati	-14782
rikidza	-14783
▁amofin	-14784
▁dingwe	-14785
▁gbàgbọ	-14786
▁okporo	-14787
▁sariya	-14788
▁upande	-14789
▁yanayo	-14790
▁ajọṣepọ	-14791
▁bagenda	-14792
▁mokanda	-14793
▁zombini	-14794
▁omusango	-14795
▁ukuqonda	-14796
▁ṣèṣekúṣe	-14797
qinisekisi	-14798
▁inkululeko	-14799
▁ọmọdékùnrin	-14800
UR	-14801
LAN	-14802
ímù	-14803
hasi	-14804
qolo	-14805
runa	-14806
zing	-14807
▁ear	-14808
▁tsʉ	-14809
▁udo	-14810
▁ìlẹ	-14811
▁ọti	-14812
chere	-14813
kplɔn	-14814
lutho	-14815
▁Free	-14816
▁aarọ	-14817
▁azan	-14818
▁dapọ	-14819
▁dànù	-14820
▁liku	-14821
▁narị	-14822
▁ootọ	-14823
▁pala	-14824
▁stra	-14825
▁uhla	-14826
▁uzin	-14827
▁yamu	-14828
▁zemi	-14829
mbiswa	-14830
mbulia	-14831
▁Machi	-14832
▁bandi	-14833
▁banni	-14834
▁idoju	-14835
gciniwe	-14836
zingane	-14837
▁Umuntu	-14838
▁adágún	-14839
▁mwedzi	-14840
▁owodwa	-14841
▁minduki	-14842
▁varwere	-14843
▁bazalaki	-14844
bhusayithi	-14845
▁babatunde	-14846
▁iṣakojọpọ	-14847
▁engamashumi	-14848
hr	-14849
Aga	-14850
ima	-14851
kìá	-14852
set	-14853
▁cd	-14854
▁ɖŏ	-14855
▁ከአ	-14856
chis	-14857
hole	-14858
kọni	-14859
pora	-14860
ramu	-14861
sesi	-14862
ziza	-14863
àgbà	-14864
▁ayò	-14865
▁hol	-14866
▁myə	-14867
▁yar	-14868
▁ṣán	-14869
bekwa	-14870
chiri	-14871
fihla	-14872
phata	-14873
tendo	-14874
vutha	-14875
yanda	-14876
▁bola	-14877
▁karí	-14878
▁leng	-14879
▁mnye	-14880
▁tɔgɔ	-14881
dumiso	-14882
gcwaba	-14883
gqugqu	-14884
intoni	-14885
jyanye	-14886
rhweba	-14887
ṣòdodo	-14888
▁Ngako	-14889
▁afara	-14890
▁baagi	-14891
▁vifaa	-14892
▁wakat	-14893
▁òṣèré	-14894
khethwa	-14895
korabea	-14896
▁waqala	-14897
▁àgbàlá	-14898
▁ṣèdájọ	-14899
Chishanu	-14900
yamakuru	-14901
▁zamfara	-14902
▁nyingine	-14903
▁sigameko	-14904
▁nesangano	-14905
▁paṣipaarọ	-14906
▁adigunjale	-14907
▁imiphumela	-14908
IM	-14909
yã	-14910
-50	-14911
▁xw	-14912
goba	-14913
▁Ang	-14914
▁Far	-14915
▁ibọ	-14916
▁mil	-14917
▁mtu	-14918
▁pdf	-14919
▁xlɛ	-14920
▁ɛre	-14921
lodwa	-14922
vandu	-14923
▁Baya	-14924
▁bang	-14925
▁disi	-14926
▁ngee	-14927
▁ngon	-14928
▁yone	-14929
gihugu	-14930
▁sethu	-14931
mitambo	-14932
▁Arsenal	-14933
▁adeyemi	-14934
▁kumusha	-14935
▁phandle	-14936
ishiyagalo	-14937
▁masangano	-14938
▁Tidakumana	-14939
▁alailowaya	-14940
74	-14941
ለያ	-14942
ሎች	-14943
ርቲ	-14944
dhu	-14945
ọnù	-14946
jere	-14947
mark	-14948
ìjíí	-14949
ǹgbà	-14950
▁35.	-14951
▁aʋa	-14952
▁npe	-14953
▁yoM	-14954
▁ìwẹ	-14955
latan	-14956
selwe	-14957
sheni	-14958
▁anan	-14959
▁bita	-14960
▁case	-14961
▁gbùn	-14962
▁muhu	-14963
▁ukwu	-14964
▁Party	-14965
▁dúkìá	-14966
▁oníṣọ	-14967
▁tsiku	-14968
▁ìdarí	-14969
▁ìpele	-14970
fundise	-14971
▁Sunday	-14972
▁ailewu	-14973
▁akanṣe	-14974
▁akyerɛ	-14975
▁joseph	-14976
▁kunoku	-14977
▁uburyo	-14978
▁zinthu	-14979
▁ìgboro	-14980
ikubhite	-14981
▁bokengi	-14982
▁ebomini	-14983
▁ọlọkada	-14984
linganisa	-14985
tatimende	-14986
▁chimanga	-14987
dambudziko	-14988
▁kukumkani	-14989
▁maendeleo	-14990
▁owesilisa	-14991
▁vanofanira	-14992
.5	-14993
SC	-14994
▁ራ	-14995
kwɛ	-14996
log	-14997
ání	-14998
ዓለም	-14999
▁ከመ	-15000
cina	-15001
ream	-15002
ship	-15003
síni	-15004
▁192	-15005
▁mur	-15006
▁vol	-15007
▁ìbú	-15008
▁ìtú	-15009
dingi	-15010
mbama	-15011
yɛfoɔ	-15012
▁Bama	-15013
▁asan	-15014
▁dida	-15015
▁kaya	-15016
▁ngun	-15017
▁sabe	-15018
▁tiku	-15019
▁àyàn	-15020
▁ọrùn	-15021
ibithe	-15022
kpìkpà	-15023
mbidza	-15024
siseko	-15025
▁anaye	-15026
▁esise	-15027
▁fífún	-15028
▁mlisa	-15029
▁ogbon	-15030
▁nendlu	-15031
▁William	-15032
▁iṣelọpọ	-15033
▁yintoni	-15034
▁ìmọtara	-15035
thunyelwa	-15036
▁amaningi	-15037
▁imveliso	-15038
▁kwathiwa	-15039
▁iinkcukacha	-15040
▁neenkcukacha	-15041
kow	-15042
òbá	-15043
▁CE	-15044
-19,	-15045
cede	-15046
dies	-15047
duze	-15048
lama	-15049
read	-15050
tanu	-15051
tate	-15052
veli	-15053
▁ubo	-15054
▁ìdọ	-15055
▁ìlù	-15056
lizwi	-15057
qatha	-15058
qhele	-15059
▁ańgẹ	-15060
▁bezo	-15061
▁dede	-15062
▁dubu	-15063
▁lelo	-15064
▁rese	-15065
▁sọni	-15066
▁wamu	-15067
▁woye	-15068
bhanga	-15069
kalisa	-15070
zabeth	-15071
▁aburo	-15072
▁akori	-15073
▁kumbe	-15074
▁wàláà	-15075
▁zvema	-15076
hlaleni	-15077
▁basusu	-15078
▁ilivyo	-15079
▁mitemo	-15080
▁robert	-15081
▁Chelsea	-15082
▁efanele	-15083
▁igbagbọ	-15084
▁medical	-15085
▁yenyika	-15086
▁àpéjọpọ	-15087
▁gọọmentị	-15088
▁ipaniyan	-15089
▁nyumbani	-15090
rìnlélógún	-15091
▁kupomerwa	-15092
78	-15093
zy	-15094
▁ï	-15095
fee	-15096
ǹdè	-15097
▁UP	-15098
bẹwo	-15099
godu	-15100
kwin	-15101
lákì	-15102
miza	-15103
vina	-15104
▁800	-15105
▁Kar	-15106
▁ejo	-15107
▁gen	-15108
núkún	-15109
▁beng	-15110
▁diko	-15111
▁mefa	-15112
▁mimo	-15113
▁mutu	-15114
▁nezo	-15115
abantu	-15116
mbutho	-15117
sendle	-15118
sevisi	-15119
▁Kaimu	-15120
▁alina	-15121
▁kudzi	-15122
▁panin	-15123
▁uwezo	-15124
▁ìṣirò	-15125
▁òrùlé	-15126
lingisa	-15127
▁Meneja	-15128
▁ukholo	-15129
▁digital	-15130
wasiliano	-15131
▁amazinyo	-15132
▁taratara	-15133
bandakanye	-15134
▁umgangatho	-15135
▁muzvipatara	-15136
ተር	-15137
▁ç	-15138
art	-15139
sic	-15140
ሻሻል	-15141
▁IS	-15142
▁cc	-15143
▁መን	-15144
fowo	-15145
fuza	-15146
kosa	-15147
madu	-15148
mesì	-15149
pèsè	-15150
xulu	-15151
yine	-15152
▁cra	-15153
▁kọn	-15154
▁weh	-15155
▁wel	-15156
▁àyá	-15157
▁ọka	-15158
bango	-15159
shiwe	-15160
▁1999	-15161
▁High	-15162
▁ezan	-15163
▁fada	-15164
▁isig	-15165
▁jini	-15166
▁kɔfɛ	-15167
▁kọsẹ	-15168
▁moyo	-15169
▁ṣíwọ	-15170
▁ṣókí	-15171
bololo	-15172
tekere	-15173
▁asiri	-15174
▁packa	-15175
▁àkópọ	-15176
▁ólífì	-15177
enoside	-15178
▁naseku	-15179
▁ngambo	-15180
▁afoforo	-15181
▁ibaṣepọ	-15182
sababisha	-15183
▁emadhora	-15184
▁iinkonzo	-15185
▁kuongeza	-15186
▁njengesi	-15187
khethekile	-15188
▁encwadini	-15189
▁ngokwakhe	-15190
▁california	-15191
ñu	-15192
ffa	-15193
nwọ	-15194
▁Ed	-15195
bank	-15196
mejì	-15197
onti	-15198
pasi	-15199
rent	-15200
viet	-15201
wàní	-15202
yiku	-15203
yura	-15204
yédè	-15205
▁dyə	-15206
▁egu	-15207
▁zaa	-15208
lingi	-15209
mbene	-15210
tinda	-15211
▁akpọ	-15212
▁kàlẹ	-15213
▁tòun	-15214
▁yaya	-15215
▁ààtò	-15216
cedisa	-15217
dayisa	-15218
igbimọ	-15219
kistan	-15220
mkhulu	-15221
▁iyanu	-15222
▁áhábù	-15223
ingatha	-15224
tshelwa	-15225
▁States	-15226
▁Yorùbá	-15227
▁nsogbu	-15228
▁sinimá	-15229
▁uhlala	-15230
▁vyombo	-15231
▁ṣètọrẹ	-15232
mọkùnrin	-15233
▁Museveni	-15234
chengetedza	-15235
▁abasebenzisi	-15236
Di	-15237
Ru	-15238
azụ	-15239
oti	-15240
ìlì	-15241
▁bɩ	-15242
▁eg	-15243
▁ou	-15244
▁ɑn	-15245
búlẹ	-15246
kibi	-15247
kong	-15248
rónà	-15249
ịara	-15250
▁CEN	-15251
▁Hal	-15252
▁amɔ	-15253
▁kwụ	-15254
▁àfo	-15255
shele	-15256
zizwe	-15257
▁ayen	-15258
▁bíṣọ	-15259
▁echi	-15260
▁jira	-15261
▁jọjọ	-15262
▁kise	-15263
▁kásẹ	-15264
▁lana	-15265
▁lapa	-15266
▁mkoa	-15267
▁nwan	-15268
▁ukho	-15269
▁wura	-15270
▁wàrà	-15271
bulela	-15272
ganira	-15273
hitaji	-15274
wandle	-15275
▁Chama	-15276
▁chemu	-15277
▁lanmɛ	-15278
▁oniṣẹ	-15279
▁smart	-15280
▁teṣan	-15281
▁uNksz	-15282
▁ṣáínà	-15283
tengene	-15284
traffic	-15285
▁Angola	-15286
▁adesua	-15287
▁maboko	-15288
▁ojúgbà	-15289
▁omiran	-15290
khumbuzo	-15291
léláàádọ	-15292
▁Kamanda	-15293
▁alágbèé	-15294
▁bilionu	-15295
▁boletse	-15296
▁england	-15297
▁hupenyu	-15298
▁katsina	-15299
▁process	-15300
▁yàwòrán	-15301
dlulileyo	-15302
▁ibikorwa	-15303
▁inofanira	-15304
▁kuratidzira	-15305
▁pennsylvania	-15306
,’	-15307
Ne	-15308
And	-15309
adu	-15310
kpɛ	-15311
ruo	-15312
ላቸው	-15313
▁43	-15314
▁ብቻ	-15315
AIDS	-15316
drew	-15317
ledi	-15318
phon	-15319
time	-15320
yọde	-15321
zula	-15322
▁Ala	-15323
▁Ndo	-15324
▁Zin	-15325
▁bla	-15326
▁has	-15327
▁job	-15328
▁ọlẹ	-15329
bakho	-15330
bongo	-15331
ganyi	-15332
genan	-15333
guage	-15334
kishi	-15335
tsapp	-15336
yoyin	-15337
▁Guru	-15338
▁asin	-15339
▁bina	-15340
▁keta	-15341
▁olwo	-15342
▁sema	-15343
▁soda	-15344
▁yezo	-15345
khwele	-15346
liweyo	-15347
▁Mwana	-15348
▁ikole	-15349
▁unako	-15350
conomic	-15351
▁kulula	-15352
▁thomas	-15353
▁Central	-15354
▁ajeseku	-15355
▁aladani	-15356
▁ayederu	-15357
▁college	-15358
▁lenaneo	-15359
▁nokunye	-15360
▁Morogoro	-15361
▁Ngokusho	-15362
▁iintlobo	-15363
▁kpénúkún	-15364
▁nukɔntɔn	-15365
▁zvirwere	-15366
▁Minisitiri	-15367
▁kupararira	-15368
-,	-15369
Ri	-15370
owe	-15371
▁də	-15372
akwa	-15373
goko	-15374
gqun	-15375
wusi	-15376
▁TRA	-15377
▁fes	-15378
▁tím	-15379
▁yon	-15380
dents	-15381
renya	-15382
twara	-15383
wɔtwe	-15384
▁Mina	-15385
▁VaTa	-15386
▁ahlu	-15387
▁good	-15388
▁kayo	-15389
▁mawa	-15390
▁moro	-15391
gelosi	-15392
kisayo	-15393
lawuli	-15394
xhuman	-15395
▁eekan	-15396
▁izulu	-15397
▁jaana	-15398
▁jamii	-15399
▁kuyin	-15400
▁kẹdun	-15401
▁ndizi	-15402
▁náírà	-15403
ìjííríà	-15404
▁bárakú	-15405
▁encane	-15406
▁kudala	-15407
▁kuvela	-15408
▁martin	-15409
▁nokuyi	-15410
cwaningo	-15411
▁Mohamed	-15412
▁encyclo	-15413
▁idanimọ	-15414
▁nkankan	-15415
▁sikwazi	-15416
▁Àṣejèrè	-15417
xhomekeke	-15418
▁Lilongwe	-15419
▁abẹokuta	-15420
▁sokuqala	-15421
▁uyakwazi	-15422
bonakalisa	-15423
▁switzerland	-15424
▁zveZimbabwe	-15425
Au	-15426
900	-15427
eye	-15428
ṣeé	-15429
ụma	-15430
hadi	-15431
inde	-15432
matụ	-15433
miya	-15434
sùlù	-15435
view	-15436
▁coo	-15437
▁eco	-15438
▁etɛ	-15439
▁uqa	-15440
isiri	-15441
▁geta	-15442
▁kọbi	-15443
▁létò	-15444
▁mpen	-15445
▁name	-15446
▁simu	-15447
▁tabu	-15448
▁yava	-15449
▁Ɔman	-15450
imyaka	-15451
kọsílẹ	-15452
tekisi	-15453
▁awiri	-15454
▁kozwa	-15455
▁kọmiṣ	-15456
▁lópin	-15457
▁ndili	-15458
▁setan	-15459
khishwa	-15460
▁Wabula	-15461
▁ambalo	-15462
▁igbesi	-15463
cacileyo	-15464
dlelwane	-15465
kàndínlọ	-15466
mandleni	-15467
▁awolọwọ	-15468
▁company	-15469
▁inkinga	-15470
▁zambiri	-15471
▁Kunyange	-15472
▁kíróníkà	-15473
▁matumizi	-15474
▁okufanele	-15475
▁jerusalemu	-15476
▁mumigwagwa	-15477
siyanasiyana	-15478
▁zokusebenza	-15479
▁ebalulekileyo	-15480
ገድ	-15481
dán	-15482
eto	-15483
iru	-15484
kat	-15485
loy	-15486
▁()	-15487
▁መል	-15488
Waye	-15489
back	-15490
hene	-15491
láyà	-15492
lómù	-15493
tomɛ	-15494
tóní	-15495
▁Adé	-15496
▁mat	-15497
▁ule	-15498
▁ɖie	-15499
chers	-15500
kanti	-15501
omono	-15502
▁Afya	-15503
▁Dani	-15504
▁blog	-15505
▁boro	-15506
▁fori	-15507
▁happ	-15508
▁hayi	-15509
▁kọjú	-15510
▁mabe	-15511
▁raia	-15512
▁that	-15513
▁vivi	-15514
▁àkún	-15515
▁ọmọọ	-15516
geziwe	-15517
jabula	-15518
thwele	-15519
▁March	-15520
▁Ncube	-15521
▁kudla	-15522
▁lingu	-15523
▁nṣiṣẹ	-15524
▁àtèyí	-15525
▁akẹgbẹ	-15526
▁lóríṣi	-15527
▁nangen	-15528
▁owenza	-15529
▁ṣètìlẹ	-15530
Facebook	-15531
▁Mandela	-15532
▁gouverne	-15533
▁inyaniso	-15534
mpumalanga	-15535
▁eNkantolo	-15536
▁tsweletse	-15537
▁ukuthenga	-15538
▁amafaranga	-15539
ii	-15540
arụ	-15541
cla	-15542
dal	-15543
ọnụ	-15544
▁Mă	-15545
▁Ve	-15546
gugu	-15547
hone	-15548
poro	-15549
turi	-15550
tùtù	-15551
zura	-15552
▁Inn	-15553
▁Mur	-15554
▁gbu	-15555
▁kaS	-15556
▁lon	-15557
▁ogu	-15558
bóámù	-15559
kanin	-15560
manyi	-15561
rwara	-15562
▁Yena	-15563
▁Zuma	-15564
▁danu	-15565
▁fini	-15566
▁kaMa	-15567
▁lali	-15568
▁mati	-15569
▁réew	-15570
▁wati	-15571
mbamba	-15572
sálómù	-15573
thutha	-15574
zimisi	-15575
▁Imana	-15576
▁abaza	-15577
▁cishe	-15578
▁ibanu	-15579
▁itura	-15580
▁kplɔn	-15581
▁maaso	-15582
▁miezi	-15583
▁mikoa	-15584
▁yaseM	-15585
▁Nakuba	-15586
▁canada	-15587
▁ezelwe	-15588
▁ingaba	-15589
▁konile	-15590
▁kunyan	-15591
▁kwaban	-15592
▁maanda	-15593
▁olùgbọ	-15594
▁ṣawari	-15595
hwehwɛmu	-15596
▁Francis	-15597
▁ìparapọ	-15598
▁amaqembu	-15599
▁jónátánì	-15600
▁mudzimba	-15601
kànlélógún	-15602
▁ábúsálómù	-15603
▁laseYiputa	-15604
▁mukurumbira	-15605
GI	-15606
▁ቁ	-15607
dyə	-15608
gcu	-15609
kɔɔ	-15610
vil	-15611
▁96	-15612
▁ቤት	-15613
▁የሰ	-15614
ggya	-15615
gqwe	-15616
sung	-15617
teau	-15618
yora	-15619
▁Nzo	-15620
▁Por	-15621
▁eMa	-15622
▁nez	-15623
▁sem	-15624
▁ሰዎች	-15625
▁ጉዳይ	-15626
gbága	-15627
nigba	-15628
publi	-15629
wulos	-15630
▁ball	-15631
▁dorí	-15632
▁kume	-15633
▁lòpọ	-15634
▁lẹwa	-15635
▁síbì	-15636
▁zise	-15637
▁zĩig	-15638
▁ṣíṣè	-15639
celeni	-15640
tẹlẹmu	-15641
yinshi	-15642
▁2014,	-15643
▁abasi	-15644
▁bekun	-15645
▁etuka	-15646
▁gbèrò	-15647
▁kimya	-15648
▁laipe	-15649
▁mkulu	-15650
▁nyama	-15651
▁onílé	-15652
▁ukuqa	-15653
▁yooku	-15654
▁ìfòye	-15655
▁ìṣísẹ	-15656
tsigira	-15657
▁ayamba	-15658
▁elongo	-15659
▁liboso	-15660
kwenzayo	-15661
lélógójì	-15662
▁ukhethe	-15663
▁umkhosi	-15664
▁ìjákulẹ	-15665
qhagamshe	-15666
▁Mtendaji	-15667
▁Nigerian	-15668
▁cheCovid	-15669
▁hesekáyà	-15670
▁kwenziwa	-15671
▁abathengi	-15672
▁fílístínì	-15673
Hu	-15674
▁ʋ	-15675
Ban	-15676
box	-15677
gni	-15678
ụsụ	-15679
▁AS	-15680
▁Nɔ	-15681
▁Ze	-15682
haka	-15683
mìjí	-15684
tizo	-15685
▁Ade	-15686
▁Ele	-15687
▁adɔ	-15688
▁ìwo	-15689
gcobo	-15690
gusha	-15691
jìnnì	-15692
phucu	-15693
yende	-15694
yìnbọ	-15695
▁Athi	-15696
▁Vaka	-15697
▁bado	-15698
▁eran	-15699
▁kulẹ	-15700
▁team	-15701
▁tɛmɛ	-15702
▁veku	-15703
▁zing	-15704
cacisa	-15705
ctoria	-15706
phanga	-15707
tekano	-15708
▁Bénin	-15709
▁aṣiri	-15710
▁ifoju	-15711
▁lwase	-15712
▁nobel	-15713
▁radio	-15714
▁sanza	-15715
▁skope	-15716
▁ìbàlẹ	-15717
pinzani	-15718
▁Chukwu	-15719
▁Nyumba	-15720
▁kgaolo	-15721
▁kudare	-15722
▁miradi	-15723
▁nebuka	-15724
▁server	-15725
▁ucinge	-15726
▁ṣeleri	-15727
thengisi	-15728
▁engcono	-15729
▁inkunzi	-15730
▁kubekho	-15731
▁kukwazi	-15732
▁ngalolu	-15733
▁ukuqala	-15734
▁Agciniwe	-15735
▁afojusun	-15736
▁dukplɔla	-15737
▁elwandle	-15738
▁monomono	-15739
km	-15740
ʉə	-15741
ኛው	-15742
suu	-15743
▁51	-15744
▁Kọ	-15745
▁mə	-15746
▁‘‘	-15747
feze	-15748
keze	-15749
mire	-15750
màmà	-15751
rili	-15752
angwa	-15753
chama	-15754
hondo	-15755
▁Mike	-15756
▁atín	-15757
▁dáni	-15758
▁hana	-15759
▁lemi	-15760
▁lita	-15761
▁nasa	-15762
▁sọnu	-15763
▁toro	-15764
▁títì	-15765
Kaizer	-15766
elezwa	-15767
livere	-15768
▁baamu	-15769
▁idadi	-15770
▁kwelo	-15771
▁kéènì	-15772
▁nakwe	-15773
▁obala	-15774
▁tract	-15775
husisha	-15776
▁atunto	-15777
▁igboro	-15778
▁sekole	-15779
▁vijana	-15780
▁ṣejọba	-15781
jabulela	-15782
phuhliso	-15783
▁kunyaka	-15784
▁kwesiri	-15785
▁shekaru	-15786
▁agbekale	-15787
▁constitu	-15788
▁emanzini	-15789
▁eminingi	-15790
▁nezvimwe	-15791
▁kananjalo	-15792
lungiselele	-15793
▁Ngaphandle	-15794
▁manufacture	-15795
NA	-15796
eu	-15797
sã	-15798
ከተ	-15799
ful	-15800
ụwa	-15801
▁Ná	-15802
▁Pú	-15803
▁hã	-15804
fano	-15805
mpan	-15806
teko	-15807
urce	-15808
ǹgbò	-15809
▁Pia	-15810
▁VaO	-15811
▁jló	-15812
▁ísọ	-15813
ching	-15814
dẹgbẹ	-15815
fihàn	-15816
gbòdì	-15817
gweba	-15818
kandi	-15819
lunge	-15820
tuthu	-15821
tẹẹli	-15822
▁gita	-15823
▁jiji	-15824
▁peye	-15825
▁pour	-15826
▁àléé	-15827
▁ɛnam	-15828
simesi	-15829
àtúnṣe	-15830
▁brand	-15831
▁lonii	-15832
▁seese	-15833
▁yoòbá	-15834
▁èdèkò	-15835
▁ẹgbàa	-15836
wàníhìn	-15837
▁boloko	-15838
▁bwanji	-15839
▁foforo	-15840
▁hakuna	-15841
▁Kampuni	-15842
▁bathole	-15843
▁nenyika	-15844
▁uongozi	-15845
▁àjẹsára	-15846
▁ìjímìjí	-15847
▁Bulawayo	-15848
▁Naijiria	-15849
▁esengeli	-15850
▁liyebisi	-15851
kuburitswa	-15852
▁ukwenzela	-15853
▁wíwàníhìn	-15854
▁inofanirwa	-15855
▁lóríṣiríṣi	-15856
▁metatrader	-15857
--	-15858
We	-15859
sab	-15860
ńpẹ	-15861
ịrị	-15862
▁Mì	-15863
dalo	-15864
mìtì	-15865
sírà	-15866
wíwá	-15867
▁31,	-15868
▁Edu	-15869
▁rai	-15870
▁yai	-15871
▁ነገር	-15872
▁አሁን	-15873
gyina	-15874
hambi	-15875
handa	-15876
kombe	-15877
munhu	-15878
qondi	-15879
yihlo	-15880
▁aran	-15881
▁bulọ	-15882
▁kowa	-15883
▁lopo	-15884
▁láre	-15885
▁mate	-15886
▁wuni	-15887
▁òòjọ	-15888
▁ɖevo	-15889
▁Villa	-15890
▁bófin	-15891
▁gaara	-15892
▁https	-15893
▁ikọkọ	-15894
▁irufẹ	-15895
▁rasmi	-15896
▁tinye	-15897
▁ukuyo	-15898
▁wetin	-15899
hlandlo	-15900
zingira	-15901
▁alitoa	-15902
▁atunwo	-15903
▁befuna	-15904
▁jòsáyà	-15905
▁malamu	-15906
▁masome	-15907
▁ningbo	-15908
▁nwunye	-15909
▁olootu	-15910
▁oriire	-15911
▁sehemu	-15912
▁Ìgbìmọ	-15913
renyatwa	-15914
▁General	-15915
▁abalala	-15916
▁ecaleni	-15917
▁ntokazi	-15918
▁shugaba	-15919
▁ìrìnàjò	-15920
langaniso	-15921
▁gbùngbùn	-15922
▁abazalwana	-15923
▁democratic	-15924
▁igbohunsafẹfẹ	-15925
KU	-15926
YE	-15927
gè	-15928
tã	-15929
ŋu	-15930
▁ቦ	-15931
▁ዝ	-15932
Com	-15933
ELA	-15934
ame	-15935
yor	-15936
ôte	-15937
bitu	-15938
hile	-15939
mọla	-15940
vira	-15941
viwo	-15942
yelo	-15943
yàmẹ	-15944
yẹyẹ	-15945
▁Jin	-15946
▁ONU	-15947
▁One	-15948
▁cdu	-15949
▁sub	-15950
▁àpè	-15951
akụkọ	-15952
kondo	-15953
mkela	-15954
▁Kisu	-15955
▁mazi	-15956
▁paas	-15957
▁soki	-15958
▁síni	-15959
▁yako	-15960
▁ṣamọ	-15961
isemba	-15962
▁afana	-15963
▁bamwe	-15964
▁nibwo	-15965
▁nobun	-15966
▁start	-15967
▁síríà	-15968
▁umeme	-15969
▁akekho	-15970
▁ibugbe	-15971
▁points	-15972
▁tìkára	-15973
▁vaviri	-15974
▁wawili	-15975
▁KwaZulu	-15976
▁kuJehova	-15977
▁skopelos	-15978
▁ingakumbi	-15979
▁okwamanje	-15980
▁uhulumeni	-15981
▁ezintabeni	-15982
BE	-15983
OM	-15984
ታወ	-15985
ታዊ	-15986
ፊት	-15987
bes	-15988
his	-15989
lsa	-15990
tos	-15991
ገራት	-15992
▁ሳይ	-15993
masi	-15994
mínì	-15995
part	-15996
yamọ	-15997
▁ayì	-15998
gorha	-15999
gwebi	-16000
kheni	-16001
pembe	-16002
phoqe	-16003
yinbo	-16004
▁Bayi	-16005
▁adùn	-16006
▁aáwọ	-16007
▁foot	-16008
▁jíjà	-16009
▁kamu	-16010
▁lezo	-16011
▁loba	-16012
▁látò	-16013
▁robo	-16014
▁yazi	-16015
bánisọ	-16016
federa	-16017
funika	-16018
gijima	-16019
pejuwe	-16020
zelele	-16021
ṣòtítọ	-16022
▁again	-16023
▁engum	-16024
▁hlelo	-16025
▁kokun	-16026
▁laini	-16027
▁lomwe	-16028
▁léèrè	-16029
▁ntina	-16030
▁ojula	-16031
▁ìṣesí	-16032
kunjalo	-16033
sindiso	-16034
▁abakwa	-16035
▁gọvanọ	-16036
▁mapiri	-16037
jabulisa	-16038
▁Richard	-16039
▁babantu	-16040
▁intloko	-16041
▁likambo	-16042
▁wangena	-16043
▁youtube	-16044
▁December	-16045
▁entlango	-16046
▁bukaThixo	-16047
▁kuburikidza	-16048
▁eBhayibhelini	-16049
nụ	-16050
kam	-16051
lio	-16052
mọọ	-16053
▁hd	-16054
eing	-16055
ghan	-16056
mọbi	-16057
tɔwo	-16058
vier	-16059
weru	-16060
ɲini	-16061
▁nad	-16062
▁tom	-16063
chemo	-16064
chite	-16065
takao	-16066
▁full	-16067
▁kisa	-16068
▁kuja	-16069
▁quar	-16070
▁yíyẹ	-16071
Sicela	-16072
chunge	-16073
gqirha	-16074
lekayo	-16075
▁Abuja	-16076
▁Niger	-16077
▁Paris	-16078
▁abayọ	-16079
▁afárá	-16080
▁atilẹ	-16081
▁fopin	-16082
▁gboye	-16083
▁jokoo	-16084
▁ndiyi	-16085
▁ndoku	-16086
▁ngazi	-16087
▁tatta	-16088
▁ámósì	-16089
▁ọgbin	-16090
cimbini	-16091
dolophu	-16092
tarajia	-16093
urirano	-16094
▁Commun	-16095
▁shirin	-16096
▁àtìgbà	-16097
▁ìbàdàn	-16098
▁aphinde	-16099
▁kuramwa	-16100
▁vasinga	-16101
▁ábúrámù	-16102
▁itankalẹ	-16103
▁kwevanhu	-16104
▁tónítóní	-16105
▁isebenzisa	-16106
▁unelungelo	-16107
▁Highlanders	-16108
▁mapfumbamwe	-16109
dɛ	-16110
yĭ	-16111
zɛ	-16112
cus	-16113
▁47	-16114
▁Cy	-16115
▁UJ	-16116
▁Xó	-16117
▁ir	-16118
▁ob	-16119
buze	-16120
bẹrẹ	-16121
fone	-16122
hite	-16123
lenw	-16124
liba	-16125
sítọ	-16126
talọ	-16127
ttle	-16128
vuye	-16129
▁awi	-16130
▁bem	-16131
▁omí	-16132
▁Àjọ	-16133
▁àga	-16134
▁በዚህ	-16135
shici	-16136
zithi	-16137
▁beze	-16138
▁dẹnu	-16139
▁hena	-16140
▁ibho	-16141
▁kawo	-16142
▁kodò	-16143
▁kolu	-16144
▁kora	-16145
▁kuga	-16146
▁page	-16147
▁port	-16148
▁sino	-16149
▁usha	-16150
▁yọju	-16151
astern	-16152
onyere	-16153
polisi	-16154
sùlùmí	-16155
▁Yonke	-16156
▁apple	-16157
▁asatọ	-16158
▁cross	-16159
▁enoku	-16160
▁esina	-16161
▁myaka	-16162
▁nronu	-16163
▁onídà	-16164
▁yĩnga	-16165
▁ìtajà	-16166
▁ẹniti	-16167
gagbága	-16168
mnyango	-16169
yidzana	-16170
▁agbele	-16171
▁ilorin	-16172
▁imithi	-16173
▁inzuzo	-16174
▁karere	-16175
▁kusasa	-16176
▁okwesi	-16177
▁owayen	-16178
hizinisi	-16179
qingatha	-16180
▁gídíónì	-16181
▁igihugu	-16182
▁ithemba	-16183
▁kutenga	-16184
▁pamberi	-16185
▁umkakhe	-16186
▁yekunze	-16187
▁ọtẹlẹmu	-16188
▁Gurukota	-16189
▁umzekelo	-16190
▁Umsebenzi	-16191
▁copyright	-16192
▁egwuregwu	-16193
▁izinhlelo	-16194
96	-16195
ላም	-16196
-21	-16197
kri	-16198
rwi	-16199
▁Ny	-16200
▁uh	-16201
▁vĭ	-16202
▁ɖà	-16203
▁አባ	-16204
bour	-16205
gire	-16206
kplé	-16207
sítá	-16208
yers	-16209
▁Sud	-16210
▁efe	-16211
▁exa	-16212
▁kọm	-16213
▁woM	-16214
▁ɖíè	-16215
▁የምና	-16216
isuka	-16217
ńtíkọ	-16218
▁Moko	-16219
[...]
